<unk>	0
<s>	0
</s>	0
.	-3.08806
▁the	-3.19462
,	-3.40407
s	-3.41318
▁of	-3.79908
▁in	-3.96084
▁and	-4.02575
▁a	-4.08256
▁is	-4.30069
▁to	-4.35136
▁was	-4.62805
▁The	-4.73876
▁	-4.93631
-	-5.10321
▁(	-5.22406
▁for	-5.23942
▁on	-5.37615
'	-5.40791
▁are	-5.42588
▁that	-5.47468
▁It	-5.47827
▁by	-5.48327
)	-5.50965
▁as	-5.5286
ing	-5.5503
▁with	-5.58779
▁He	-5.62318
▁from	-5.64656
ed	-5.65654
▁In	-5.76698
▁an	-5.83054
▁it	-5.85774
▁at	-5.92402
▁or	-5.94131
▁he	-5.94538
▁his	-5.96463
e	-5.97834
▁be	-6.00423
d	-6.03844
▁A	-6.04916
▁were	-6.0959
▁has	-6.11067
▁also	-6.12339
er	-6.15972
y	-6.18576
▁not	-6.21578
▁which	-6.27044
t	-6.28436
▁have	-6.31237
:	-6.36256
▁people	-6.37502
a	-6.37506
n	-6.39106
▁first	-6.43804
▁can	-6.4565
ly	-6.45828
▁one	-6.46245
o	-6.47289
▁they	-6.47723
▁had	-6.48497
th	-6.49923
al	-6.54632
▁their	-6.57183
▁but	-6.6205
▁other	-6.6232
▁This	-6.62887
i	-6.63258
es	-6.63528
▁They	-6.6539
▁who	-6.66085
▁called	-6.66672
▁used	-6.68308
▁this	-6.7188
in	-6.7312
▁about	-6.76711
▁many	-6.78493
).	-6.78795
▁made	-6.79878
▁She	-6.8437
▁two	-6.84893
▁her	-6.85304
▁known	-6.90275
▁been	-6.95278
▁United	-6.95941
▁time	-6.96003
▁more	-6.96477
▁most	-6.97181
▁when	-6.98764
▁after	-6.99721
▁all	-6.99839
▁into	-7.01564
▁S	-7.01871
S	-7.02224
or	-7.03078
▁its	-7.03989
r	-7.04568
▁American	-7.04874
▁there	-7.04899
),	-7.05172
en	-7.06124
▁city	-7.09418
▁part	-7.11476
▁I	-7.11672
▁became	-7.13132
c	-7.1336
▁some	-7.15878
▁years	-7.1859
▁States	-7.18776
on	-7.19253
▁than	-7.19633
▁up	-7.20036
le	-7.2134
▁very	-7.21673
▁only	-7.21951
▁New	-7.2206
ic	-7.22099
an	-7.22182
▁de	-7.22407
k	-7.22412
m	-7.23518
▁because	-7.24527
▁name	-7.25077
▁E	-7.25706
re	-7.25731
▁There	-7.26231
▁she	-7.2654
▁over	-7.26782
▁found	-7.29626
de	-7.29981
▁them	-7.30015
▁re	-7.30485
u	-7.30918
▁movie	-7.31242
l	-7.3233
g	-7.32488
▁like	-7.33033
C	-7.33066
;	-7.33894
▁played	-7.35945
▁so	-7.37299
▁born	-7.38055
▁out	-7.38061
h	-7.38418
▁different	-7.38512
born	-7.38592
▁where	-7.38704
▁new	-7.38917
us	-7.39448
▁such	-7.3986
▁would	-7.40182
ra	-7.41065
▁between	-7.42107
▁died	-7.43114
▁him	-7.45347
▁do	-7.47574
▁On	-7.47852
▁1	-7.48131
▁O	-7.48166
ers	-7.48464
ton	-7.48536
st	-7.48764
p	-7.49456
man	-7.49954
ne	-7.50052
▁during	-7.50168
▁may	-7.50281
ar	-7.50566
▁France	-7.50739
▁team	-7.50906
ta	-7.51719
▁make	-7.52257
te	-7.52822
▁three	-7.52828
ro	-7.52982
▁use	-7.54234
▁C	-7.54498
▁will	-7.54518
b	-7.55327
ma	-7.55824
to	-7.56019
▁released	-7.56254
ation	-7.5675
▁music	-7.58249
▁often	-7.58371
▁year	-7.58527
se	-7.5893
▁won	-7.59132
el	-7.59354
▁18	-7.59664
na	-7.59733
▁U	-7.59805
▁World	-7.61005
z	-7.61435
▁area	-7.6209
▁number	-7.64292
▁until	-7.64648
▁album	-7.6489
▁later	-7.64908
▁then	-7.65948
▁world	-7.67349
▁well	-7.67463
is	-7.67962
▁B	-7.68006
▁same	-7.68565
▁After	-7.68985
▁no	-7.69044
▁second	-7.6909
ia	-7.692
▁work	-7.69517
ion	-7.69845
▁Some	-7.70001
ri	-7.70828
/	-7.71765
▁His	-7.71859
il	-7.72574
li	-7.72629
▁G	-7.72781
P	-7.72901
▁started	-7.72942
▁did	-7.7331
▁War	-7.7365
▁T	-7.74107
▁F	-7.74152
▁2	-7.74668
▁group	-7.75012
▁state	-7.75912
B	-7.76231
▁being	-7.76284
la	-7.76515
f	-7.7659
▁D	-7.76604
▁3	-7.77019
ch	-7.77494
▁region	-7.78704
▁When	-7.79054
▁water	-7.79205
▁game	-7.79331
▁May	-7.79639
▁At	-7.79873
▁said	-7.80402
▁17	-7.80624
▁before	-7.80677
T	-7.80795
M	-7.8081
▁these	-7.80915
▁player	-7.81085
▁usually	-7.81458
A	-7.81703
▁For	-7.81841
x	-7.81883
▁small	-7.81986
▁series	-7.8199
▁named	-7.8215
▁through	-7.82207
▁La	-7.82332
▁British	-7.82813
▁could	-7.83131
ck	-7.83143
D	-7.83181
▁long	-7.84299
▁January	-7.84835
▁person	-7.85209
▁P	-7.85229
w	-7.85232
it	-7.85436
▁around	-7.85534
▁English	-7.862
▁These	-7.86863
at	-7.86877
ian	-7.87125
▁football	-7.87375
ry	-7.8752
▁University	-7.87527
▁band	-7.87719
▁August	-7.87771
▁K	-7.8788
▁family	-7.87931
▁commune	-7.89373
▁South	-7.8978
▁September	-7.89909
▁back	-7.90093
et	-7.90842
ul	-7.9103
▁department	-7.91091
▁town	-7.91158
ist	-7.91472
▁Re	-7.91497
▁M	-7.91853
▁important	-7.92153
▁each	-7.92184
▁W	-7.92501
E	-7.93026
▁government	-7.9322
▁both	-7.93275
▁end	-7.93391
▁under	-7.93445
▁large	-7.93557
▁North	-7.93683
▁place	-7.9414
▁March	-7.9428
▁July	-7.94767
▁October	-7.95018
1	-7.95233
▁show	-7.95509
▁June	-7.95743
▁against	-7.95978
▁As	-7.96006
▁example	-7.96335
um	-7.96897
▁century	-7.96971
▁song	-7.97179
▁live	-7.97715
▁several	-7.97823
▁main	-7.97885
ur	-7.97887
ke	-7.97925
▁Le	-7.98093
ter	-7.98287
▁season	-7.98541
▁national	-7.98549
▁16	-7.98583
co	-7.9906
▁four	-7.99073
▁system	-7.99137
▁including	-7.99789
▁10	-7.99805
▁April	-8.00105
no	-8.00305
▁John	-8.00561
▁National	-8.00614
▁Co	-8.00826
lo	-8.00947
ity	-8.01086
▁De	-8.01232
▁However	-8.01281
▁country	-8.01496
da	-8.01504
▁home	-8.01933
▁way	-8.01975
▁Al	-8.02112
ol	-8.02129
▁best	-8.0213
▁England	-8.0217
▁November	-8.02192
▁December	-8.02306
▁-	-8.02339
▁4	-8.02395
▁York	-8.0325
▁life	-8.03672
▁began	-8.03746
ir	-8.03926
ce	-8.03944
▁famous	-8.03989
▁if	-8.0443
ive	-8.04474
ism	-8.04575
land	-8.04614
ga	-8.0468
▁any	-8.04727
▁television	-8.04977
▁much	-8.05499
id	-8.05517
▁'	-8.05711
▁get	-8.05787
me	-8.05835
F	-8.05959
ie	-8.06055
▁now	-8.06079
▁north	-8.06697
▁To	-8.06893
▁species	-8.07471
▁since	-8.07684
▁(19	-8.07885
▁land	-8.08221
▁German	-8.08253
▁means	-8.08254
the	-8.08695
di	-8.08804
be	-8.08986
▁include	-8.09103
▁death	-8.09149
▁children	-8.10086
▁population	-8.10178
▁play	-8.10242
▁15	-8.10322
▁what	-8.10352
▁St	-8.10368
▁Ha	-8.10419
▁while	-8.10818
▁February	-8.1131
ha	-8.11475
son	-8.11666
mi	-8.11793
N	-8.11933
▁million	-8.12206
▁Japan	-8.12333
▁early	-8.12491
▁One	-8.12507
▁French	-8.12519
▁5	-8.12584
ni	-8.12917
▁countries	-8.13015
▁N	-8.13243
▁County	-8.13387
▁City	-8.13787
▁still	-8.14
▁war	-8.14496
ca	-8.14498
O	-8.14939
▁Many	-8.15046
▁popular	-8.15489
age	-8.15625
▁former	-8.16378
▁An	-8.1645
▁Sa	-8.16753
H	-8.16887
2	-8.17565
go	-8.17845
▁built	-8.17874
G	-8.17956
▁L	-8.18154
able	-8.18188
▁last	-8.18302
ve	-8.18378
▁left	-8.18534
▁King	-8.18614
▁married	-8.18617
▁c	-8.18764
▁high	-8.18857
as	-8.18938
▁form	-8.1903
▁old	-8.19453
▁near	-8.19766
▁good	-8.19871
▁language	-8.20877
▁J	-8.20967
▁un	-8.21046
▁written	-8.21196
▁set	-8.21316
do	-8.21345
R	-8.21482
ine	-8.2161
ent	-8.22059
▁Na	-8.22121
▁Me	-8.22221
▁common	-8.22341
▁how	-8.22474
▁day	-8.22507
▁wrote	-8.22647
▁own	-8.22704
L	-8.22936
▁went	-8.22988
▁London	-8.23197
▁book	-8.23469
mo	-8.23548
▁20	-8.23784
▁R	-8.23887
▁another	-8.23909
▁River	-8.23935
▁co	-8.2407
▁club	-8.2443
▁go	-8.24476
5	-8.24718
ba	-8.24806
▁does	-8.25156
tic	-8.25208
▁things	-8.25346
j	-8.25581
▁lived	-8.25755
▁word	-8.25947
▁came	-8.26291
▁League	-8.26321
▁moved	-8.26588
▁become	-8.26725
ment	-8.26975
ll	-8.26989
▁Dur	-8.27211
3	-8.27512
▁based	-8.27519
ty	-8.27965
▁age	-8.28047
▁America	-8.28194
▁capital	-8.28288
▁school	-8.28323
▁given	-8.28726
ti	-8.28834
▁6	-8.28836
▁12	-8.28837
▁So	-8.28868
▁took	-8.28974
▁largest	-8.28994
▁V	-8.29331
▁Her	-8.29359
▁H	-8.29471
▁created	-8.29476
▁7	-8.29549
▁All	-8.29805
▁con	-8.30055
▁Germany	-8.30855
am	-8.31136
▁single	-8.3163
▁man	-8.31877
I	-8.32113
est	-8.32518
▁even	-8.32538
▁father	-8.32588
▁Ro	-8.32724
▁President	-8.33333
▁body	-8.33388
▁down	-8.3344
ley	-8.33611
▁member	-8.34238
sh	-8.34393
▁Most	-8.3443
▁Se	-8.34541
▁e	-8.34704
▁Roman	-8.35274
▁power	-8.35325
br	-8.3533
nd	-8.35582
▁Ma	-8.35641
▁sometimes	-8.35744
ary	-8.36342
ies	-8.36452
▁No	-8.36585
▁Ta	-8.36901
▁living	-8.37926
▁help	-8.3803
ad	-8.38353
ate	-8.38486
der	-8.3872
▁II	-8.38895
ka	-8.38948
0	-8.38964
▁times	-8.39382
▁south	-8.39422
▁together	-8.39586
▁Australia	-8.39604
▁Be	-8.39716
▁thought	-8.39742
▁head	-8.40375
ci	-8.40381
▁games	-8.40433
▁using	-8.40621
▁14	-8.40742
ge	-8.41022
▁light	-8.41217
▁Mo	-8.4139
▁son	-8.41636
▁plays	-8.42186
▁just	-8.42459
▁period	-8.42682
v	-8.43377
▁West	-8.43634
▁Ka	-8.43644
▁California	-8.43711
▁term	-8.44484
▁East	-8.44793
▁Man	-8.45005
les	-8.45012
▁Li	-8.45135
▁again	-8.45549
▁few	-8.45865
▁province	-8.45948
▁members	-8.46189
▁third	-8.46354
ru	-8.46514
ner	-8.46604
4	-8.47077
per	-8.4712
ant	-8.47268
▁11	-8.47385
▁13	-8.47564
un	-8.47724
▁Japanese	-8.47776
▁men	-8.47985
▁pro	-8.48087
▁short	-8.48218
▁line	-8.48394
▁major	-8.48591
om	-8.48641
▁singer	-8.48641
▁type	-8.48663
ver	-8.48779
▁got	-8.4912
▁Ar	-8.493
▁Car	-8.49317
ts	-8.495
pe	-8.49555
▁five	-8.4966
▁car	-8.49773
▁Bo	-8.49885
▁If	-8.50057
ct	-8.50062
▁Ba	-8.50099
ut	-8.50107
▁Europe	-8.50194
▁off	-8.50303
▁8	-8.50368
▁history	-8.50372
ated	-8.50683
▁take	-8.50753
va	-8.50856
▁held	-8.51216
▁9	-8.51242
gu	-8.5127
K	-8.51803
▁Ho	-8.519
▁food	-8.51982
▁parts	-8.52142
▁Cup	-8.5245
▁see	-8.5287
▁actor	-8.5292
▁lot	-8.52923
ff	-8.53136
po	-8.53148
6	-8.53384
vi	-8.53679
▁next	-8.53709
ger	-8.53893
▁Do	-8.54607
os	-8.54695
W	-8.54916
V	-8.54928
bo	-8.54997
ling	-8.55141
▁San	-8.55262
▁top	-8.55535
▁similar	-8.55575
▁put	-8.55831
▁special	-8.55835
▁Vi	-8.56616
ard	-8.56952
▁public	-8.57038
▁order	-8.57319
▁Ra	-8.57338
ted	-8.57341
▁di	-8.57364
▁every	-8.57404
ster	-8.57424
▁company	-8.57434
▁India	-8.57458
ot	-8.5751
▁But	-8.57581
ak	-8.57772
▁g	-8.57852
▁west	-8.58103
▁Di	-8.5811
up	-8.58188
▁Pi	-8.58238
▁Ca	-8.58318
▁la	-8.58419
ham	-8.58672
▁following	-8.58709
▁money	-8.5872
▁People	-8.58824
▁worked	-8.58842
ac	-8.58998
▁rock	-8.59103
▁sea	-8.59302
mp	-8.59521
▁along	-8.59852
hi	-8.60155
one	-8.60161
▁human	-8.60182
▁making	-8.60208
▁Saint	-8.60233
ki	-8.60304
▁modern	-8.60485
▁air	-8.60613
▁Lo	-8.60859
▁side	-8.61121
dy	-8.61796
▁those	-8.61799
ance	-8.61944
▁X	-8.62052
▁Kingdom	-8.6228
▁per	-8.62345
▁women	-8.62421
▁Mi	-8.62496
▁video	-8.62662
00	-8.62667
▁Con	-8.62813
▁river	-8.62871
ina	-8.62999
8	-8.63049
ler	-8.63148
▁less	-8.63298
▁killed	-8.63375
▁right	-8.63468
▁list	-8.63648
pa	-8.63651
▁19	-8.6381
▁you	-8.63847
▁story	-8.64271
▁formed	-8.64382
▁()	-8.6439
▁changed	-8.64457
▁published	-8.64878
od	-8.65022
▁we	-8.65089
ber	-8.65282
▁role	-8.65311
▁control	-8.65391
way	-8.65516
▁island	-8.65528
▁Pa	-8.65558
▁law	-8.6557
▁2001	-8.65681
▁movies	-8.65927
and	-8.66268
▁come	-8.66412
ph	-8.66445
▁Po	-8.66466
▁point	-8.66578
▁Ga	-8.66779
den	-8.67072
▁El	-8.67088
▁Park	-8.67092
ness	-8.67139
ten	-8.6719
▁mother	-8.67212
▁Ne	-8.67437
U	-8.67653
7	-8.68402
▁Go	-8.68415
wa	-8.68461
▁Other	-8.68489
▁without	-8.68728
che	-8.68859
▁district	-8.69021
sa	-8.69293
za	-8.69796
▁Pro	-8.69861
▁gave	-8.69926
io	-8.69997
▁Union	-8.70009
ah	-8.70196
ko	-8.70454
▁character	-8.70614
▁professional	-8.70646
▁village	-8.70749
▁Award	-8.70861
ous	-8.70945
▁career	-8.71047
▁State	-8.7105
ho	-8.71087
▁change	-8.71113
ang	-8.71156
bi	-8.71205
▁east	-8.71225
▁d	-8.71235
▁European	-8.71255
▁Ko	-8.71512
▁William	-8.7155
▁We	-8.71733
▁animals	-8.71898
min	-8.72555
▁six	-8.72686
▁away	-8.72785
▁1,	-8.72937
▁mostly	-8.72942
▁Party	-8.73013
▁makes	-8.73124
▁must	-8.7332
▁US	-8.73403
▁great	-8.73613
▁George	-8.73832
▁James	-8.73979
men	-8.74202
▁Ri	-8.74252
ven	-8.74383
▁building	-8.74455
▁attack	-8.74491
und	-8.74629
▁seen	-8.74646
▁free	-8.74661
▁100	-8.74687
lin	-8.74707
▁p	-8.74805
▁School	-8.74951
▁House	-8.74958
ium	-8.75001
au	-8.75024
▁By	-8.75151
▁Su	-8.75178
▁2012	-8.75226
▁version	-8.75352
op	-8.75357
▁center	-8.75438
▁2010	-8.7558
▁record	-8.75622
em	-8.75704
▁songs	-8.75748
▁pre	-8.75758
▁China	-8.76005
▁received	-8.7629
▁Ni	-8.7636
rs	-8.76527
▁works	-8.76533
▁Canada	-8.76533
▁late	-8.76914
▁30	-8.7715
pp	-8.77207
▁Earth	-8.77265
ized	-8.77351
▁served	-8.77508
▁Mar	-8.77678
▁white	-8.77704
▁county	-8.77783
chi	-8.77873
▁black	-8.77952
▁Church	-8.77977
▁caused	-8.78003
▁king	-8.78041
▁Da	-8.78057
▁joined	-8.78228
▁led	-8.78425
▁natural	-8.78455
km	-8.78629
▁produced	-8.78697
ish	-8.78739
▁art	-8.78753
mer	-8.78786
ya	-8.7902
▁God	-8.79041
▁comes	-8.79399
▁lost	-8.7942
▁young	-8.7955
▁daughter	-8.79687
▁days	-8.79762
▁support	-8.79842
▁Dr	-8.79902
▁formula	-8.80082
▁International	-8.802
▁books	-8.80246
▁founded	-8.80385
▁Greek	-8.80392
▁run	-8.8055
▁should	-8.81077
▁wanted	-8.81239
▁local	-8.81506
▁Republic	-8.81682
▁dis	-8.8172
▁sub	-8.8179
▁total	-8.81798
▁Sea	-8.81818
tra	-8.82218
▁political	-8.82307
▁stage	-8.82364
▁Gu	-8.82424
▁Italian	-8.82526
▁original	-8.82542
▁Great	-8.82555
▁big	-8.82723
by	-8.82913
▁playing	-8.82994
▁done	-8.83365
▁me	-8.83386
▁house	-8.83482
▁fire	-8.83514
▁included	-8.83996
▁cities	-8.83999
mb	-8.84009
▁Robert	-8.84078
mon	-8.84172
▁1990	-8.84241
ja	-8.84409
▁groups	-8.84587
ng	-8.84602
▁1980	-8.85092
▁sold	-8.85171
▁title	-8.85184
▁though	-8.85208
he	-8.85381
que	-8.85597
▁official	-8.85733
ft	-8.85744
▁Because	-8.85797
ville	-8.86291
▁Wa	-8.86299
▁ten	-8.86322
vo	-8.86437
tro	-8.86471
▁military	-8.86976
ku	-8.87007
tt	-8.87153
▁metal	-8.87366
▁wife	-8.87385
▁due	-8.87395
▁Sweden	-8.87414
▁areas	-8.87536
▁too	-8.8788
▁municipality	-8.8809
less	-8.8837
▁match	-8.88392
▁Hu	-8.8846
ron	-8.88671
▁energy	-8.88703
▁find	-8.88785
▁better	-8.89045
▁computer	-8.89094
▁hard	-8.89196
9	-8.89285
▁chemical	-8.89324
ite	-8.895
▁actress	-8.89564
▁never	-8.8963
▁current	-8.89675
▁includes	-8.89688
▁Or	-8.89793
▁mean	-8.89928
▁able	-8.90186
▁almost	-8.90401
lu	-8.905
▁station	-8.90754
▁Z	-8.91137
ach	-8.91141
▁meaning	-8.91412
▁Their	-8.91416
▁shows	-8.91451
▁Bu	-8.91453
▁Red	-8.91618
▁Africa	-8.91732
▁Air	-8.9177
▁think	-8.91826
gi	-8.91849
▁Pakistan	-8.91961
▁Island	-8.91965
▁From	-8.92079
▁film	-8.92094
▁Italy	-8.9211
ally	-8.922
▁Since	-8.92289
▁places	-8.92433
ward	-8.92523
▁move	-8.92544
▁m	-8.92814
▁developed	-8.92829
▁Championship	-8.92831
▁Pe	-8.92847
▁half	-8.9286
▁Minister	-8.92861
▁sent	-8.92878
▁lead	-8.92969
fe	-8.93073
▁win	-8.93208
▁words	-8.93229
line	-8.93289
▁Spanish	-8.93414
▁average	-8.93444
▁real	-8.93664
ill	-8.94113
▁Bi	-8.94192
▁studied	-8.9425
▁start	-8.94281
▁race	-8.94282
▁aged	-8.9438
▁Australian	-8.94406
▁non	-8.94473
▁plants	-8.94575
▁Empire	-8.94593
▁taken	-8.94787
▁general	-8.94803
▁plant	-8.94817
▁event	-8.94956
ure	-8.95053
▁Black	-8.9511
▁types	-8.95132
▁Cha	-8.95378
▁1970	-8.95386
▁give	-8.95466
ud	-8.95486
mar	-8.95628
▁need	-8.95913
▁Chicago	-8.95916
▁style	-8.95945
▁final	-8.96016
▁position	-8.96068
gen	-8.96091
ig	-8.96251
▁Sch	-8.963
▁ca	-8.96493
time	-8.96544
▁hand	-8.96606
ov	-8.96701
▁present	-8.96737
▁considered	-8.96926
▁Charles	-8.97008
▁red	-8.97021
▁space	-8.97243
▁storm	-8.97346
▁appeared	-8.97538
▁say	-8.97563
▁battle	-8.97612
▁Paul	-8.97633
▁know	-8.97676
▁Soviet	-8.97835
▁25	-8.97913
▁Fa	-8.98042
▁southern	-8.98069
▁study	-8.98323
▁size	-8.98404
ong	-8.98462
we	-8.98584
▁politician	-8.99136
▁ma	-8.99368
▁Lu	-8.99456
▁having	-8.99469
ting	-8.99551
▁Indian	-8.99675
ship	-8.99824
▁among	-8.99832
▁open	-8.99918
▁writing	-8.99929
▁certain	-8.99958
tri	-9.00186
▁College	-9.00255
▁either	-9.0052
▁hit	-9.00723
▁Spain	-9.00907
side	-9.00943
▁today	-9.01017
▁kind	-9.01064
ence	-9.01099
▁cause	-9.01169
ns	-9.01229
▁leader	-9.01355
(	-9.0155
J	-9.01577
ction	-9.01626
▁strong	-9.01633
▁Royal	-9.01644
▁president	-9.01708
▁rest	-9.01735
rd	-9.01781
▁idea	-9.02214
▁color	-9.02252
▁Army	-9.02273
ana	-9.0229
▁design	-9.02394
▁church	-9.02424
▁close	-9.02465
ow	-9.02517
▁process	-9.02518
du	-9.02628
▁within	-9.02639
▁working	-9.02808
▁little	-9.02872
▁With	-9.02897
▁Canadian	-9.02966
▁child	-9.03001
▁That	-9.03075
▁2000	-9.03112
oc	-9.03128
ai	-9.03222
shi	-9.0324
▁uses	-9.03359
▁Paris	-9.03455
▁2011	-9.03589
▁always	-9.03655
▁model	-9.03855
▁Los	-9.03906
▁ice	-9.03977
▁Hall	-9.03986
▁stop	-9.04013
▁office	-9.04092
gg	-9.04106
▁problems	-9.0413
▁Ru	-9.04248
▁keep	-9.04261
▁level	-9.04291
▁50	-9.04468
ip	-9.04909
▁My	-9.0502
cy	-9.05033
▁2008	-9.05086
lic	-9.05137
▁northern	-9.05184
▁Chinese	-9.05237
lan	-9.05394
▁Per	-9.05407
▁might	-9.05464
▁Ja	-9.05534
▁du	-9.05567
▁blood	-9.05631
▁2007	-9.05923
▁Florida	-9.06117
▁international	-9.06292
▁ground	-9.06307
▁Grand	-9.06505
▁Super	-9.06535
gar	-9.06538
▁instead	-9.06621
▁Best	-9.06638
▁Russian	-9.0666
▁party	-9.06695
▁2006	-9.06849
▁Lake	-9.06851
qui	-9.06899
ves	-9.06937
▁1960	-9.07007
▁Latin	-9.07106
▁voice	-9.07175
▁science	-9.0722
▁low	-9.07257
ology	-9.07297
▁21	-9.07533
▁heart	-9.07617
▁army	-9.07813
▁David	-9.07819
▁sp	-9.07821
pt	-9.07846
▁temperature	-9.07958
▁seven	-9.07967
▁full	-9.08055
▁located	-9.08101
▁once	-9.08218
▁2,	-9.08404
▁Sun	-9.08434
▁po	-9.08438
▁players	-9.08463
▁states	-9.08494
ny	-9.08508
▁bar	-9.08578
▁brother	-9.08891
▁Catholic	-9.08891
ding	-9.09142
▁something	-9.09148
▁says	-9.09162
ial	-9.0925
▁range	-9.0933
▁writer	-9.09337
▁languages	-9.09338
▁highest	-9.09567
▁service	-9.09584
▁tropical	-9.09652
con	-9.09731
▁seat	-9.09978
▁across	-9.10004
▁Star	-9.10029
▁helped	-9.10255
ung	-9.1026
ating	-9.10263
ful	-9.10328
▁Christian	-9.10501
▁information	-9.10566
▁performed	-9.1064
▁Michael	-9.10712
ran	-9.10798
▁others	-9.10821
tes	-9.10831
tu	-9.11023
ius	-9.11098
im	-9.11191
▁District	-9.11302
mm	-9.11317
▁currently	-9.11496
▁24	-9.11518
▁Western	-9.11569
▁1998	-9.11606
▁star	-9.11656
com	-9.11669
▁Washington	-9.11783
ji	-9.11798
field	-9.11813
▁program	-9.11999
▁General	-9.12051
▁especially	-9.12097
▁1996	-9.122
▁Richard	-9.12309
19	-9.12439
▁culture	-9.12656
▁opened	-9.12812
▁court	-9.12875
▁himself	-9.12876
kin	-9.12921
▁least	-9.12986
▁stars	-9.12995
▁female	-9.13114
▁African	-9.13198
▁Queen	-9.13261
10	-9.13305
▁force	-9.13328
▁reached	-9.13397
▁look	-9.13451
▁fish	-9.13486
▁enough	-9.13513
▁coast	-9.13523
ign	-9.13573
▁want	-9.1367
val	-9.137
▁En	-9.13739
▁First	-9.13771
▁Henry	-9.13925
▁recorded	-9.13977
▁sound	-9.14187
▁Bar	-9.14268
▁met	-9.14388
▁Angeles	-9.14397
▁believe	-9.14415
▁surface	-9.14418
ier	-9.14439
▁cannot	-9.14457
▁li	-9.14572
▁director	-9.14641
▁far	-9.1469
▁police	-9.14723
▁central	-9.14774
nt	-9.14946
▁host	-9.14955
sta	-9.1509
▁eat	-9.15131
▁studio	-9.15145
▁ended	-9.15168
▁announced	-9.15221
▁Ti	-9.15458
▁retired	-9.15529
ex	-9.15675
▁White	-9.15747
▁inside	-9.15758
▁Peter	-9.15838
▁Mexico	-9.15877
▁disease	-9.1588
ub	-9.15933
▁Jo	-9.15936
▁Ju	-9.16075
ker	-9.16098
bu	-9.16116
▁pa	-9.16145
▁grow	-9.16174
▁Gi	-9.16263
▁Central	-9.16266
▁Ben	-9.16375
▁smaller	-9.16447
▁post	-9.1646
▁Du	-9.16637
▁decided	-9.16643
ney	-9.16645
▁bad	-9.16658
▁ancient	-9.16693
▁above	-9.16694
wi	-9.16717
▁High	-9.16737
▁field	-9.16814
▁changes	-9.16961
▁shown	-9.16984
▁successful	-9.17055
▁Sha	-9.17056
ea	-9.17089
▁social	-9.17169
▁write	-9.17375
▁mainly	-9.17444
ab	-9.17519
▁fight	-9.17539
▁signed	-9.17605
▁movement	-9.17646
▁Bay	-9.17663
▁Edward	-9.17682
like	-9.1769
▁test	-9.17772
ide	-9.17801
ists	-9.17849
▁possible	-9.1787
▁1995	-9.17916
▁allowed	-9.1803
▁You	-9.1813
▁elected	-9.1819
▁Day	-9.18222
▁various	-9.18226
▁Ch	-9.18345
▁university	-9.18345
hu	-9.18495
▁outside	-9.18501
▁Summer	-9.18509
tre	-9.18631
▁returned	-9.18642
▁Cor	-9.18655
▁park	-9.18706
▁replaced	-9.1878
▁radio	-9.1884
▁past	-9.18926
▁f	-9.18984
ou	-9.19075
▁love	-9.19095
▁en	-9.19186
▁Later	-9.19323
▁Fi	-9.19336
▁election	-9.19569
▁college	-9.19582
▁Academy	-9.19662
▁2016	-9.19679
20	-9.19725
sk	-9.19737
▁Am	-9.19753
▁Chi	-9.19875
▁2009	-9.19898
tor	-9.19928
▁BC	-9.20024
▁Asia	-9.20031
▁result	-9.20111
▁speak	-9.20165
▁Hi	-9.20245
▁1994	-9.20275
▁round	-9.20276
ey	-9.20479
▁Before	-9.20631
▁Ge	-9.20642
bb	-9.2069
ight	-9.20735
▁longer	-9.20844
▁Mary	-9.20886
▁amount	-9.20927
▁however	-9.20975
▁added	-9.21221
▁Music	-9.21308
▁ex	-9.21319
▁months	-9.2136
▁characters	-9.21415
▁release	-9.21416
▁woman	-9.21519
▁ever	-9.2154
▁Te	-9.21784
▁return	-9.21796
▁night	-9.21944
▁border	-9.2197
▁cancer	-9.22346
▁lives	-9.22362
▁Although	-9.22392
nes	-9.22451
▁divided	-9.22519
ical	-9.22588
gan	-9.22726
▁Ireland	-9.22847
berg	-9.22977
ze	-9.22995
▁bo	-9.23061
sion	-9.2307
▁23	-9.23134
ec	-9.23328
▁going	-9.23358
tin	-9.23545
ell	-9.23563
▁students	-9.23596
▁goes	-9.23604
ise	-9.2361
han	-9.238
▁cell	-9.23807
▁1992	-9.23815
▁Britain	-9.23933
▁Fe	-9.23963
▁continued	-9.24068
▁development	-9.24121
▁travel	-9.24146
▁2005	-9.24426
▁mountain	-9.24479
▁blue	-9.24523
ay	-9.24564
▁Pre	-9.24566
▁Qu	-9.24577
▁Rock	-9.24626
ux	-9.24683
▁bi	-9.24734
▁b	-9.2474
▁According	-9.24774
▁sc	-9.24805
▁22	-9.25075
res	-9.25184
▁Games	-9.25215
▁Bur	-9.25374
low	-9.25422
▁read	-9.25489
▁numbers	-9.25515
▁Ex	-9.25801
van	-9.25947
▁believed	-9.26185
▁Tri	-9.26438
▁symbol	-9.26481
▁Louis	-9.26498
▁front	-9.26516
ring	-9.26561
tter	-9.26627
▁parents	-9.2673
▁Y	-9.26741
▁established	-9.27104
▁western	-9.27368
▁discovered	-9.27385
▁success	-9.27415
▁data	-9.27523
tal	-9.27641
▁teams	-9.27684
▁ship	-9.27692
▁UK	-9.27799
▁Russia	-9.27808
▁3,	-9.2793
▁Illinois	-9.27997
fa	-9.28031
▁Prime	-9.28151
ities	-9.2818
▁Mac	-9.28223
▁While	-9.28259
ino	-9.28385
don	-9.28442
▁Virginia	-9.28514
▁Pu	-9.28523
▁Ke	-9.28597
▁although	-9.2861
▁base	-9.28947
ions	-9.28981
▁directed	-9.29029
▁case	-9.29065
▁Council	-9.29095
▁hurricane	-9.2936
▁tried	-9.29599
▁takes	-9.29666
▁religion	-9.29671
▁larger	-9.2974
▁eight	-9.29855
▁originally	-9.29931
▁Thomas	-9.29983
▁theory	-9.30049
▁Ya	-9.30105
burg	-9.30132
▁Olympics	-9.30243
▁forces	-9.30296
▁Har	-9.30361
▁Ver	-9.30375
▁Col	-9.30385
▁lower	-9.3039
▁Two	-9.30442
▁cells	-9.30509
▁TV	-9.30532
▁cat	-9.30625
king	-9.30698
▁sister	-9.30803
▁Texas	-9.30877
▁Mon	-9.309
▁2014	-9.30964
50	-9.311
▁create	-9.31112
▁se	-9.31119
▁pay	-9.31172
▁2010,	-9.31377
▁related	-9.3142
▁dead	-9.31436
ju	-9.31465
hy	-9.31537
▁Olympic	-9.31561
▁division	-9.31606
▁mass	-9.31607
▁Tu	-9.31641
▁length	-9.3168
des	-9.31789
▁gold	-9.31813
▁themselves	-9.31826
▁research	-9.31853
▁o	-9.31913
▁designed	-9.31975
▁gr	-9.32052
ap	-9.32102
tan	-9.32152
▁anti	-9.32183
▁1991	-9.32197
▁Che	-9.32344
▁1999	-9.32361
▁Each	-9.3248
▁Wi	-9.32545
▁ball	-9.32582
▁producer	-9.32592
▁civil	-9.32615
▁produce	-9.32648
▁Scotland	-9.32692
▁Iowa	-9.32692
form	-9.32697
ford	-9.32794
▁opera	-9.32865
ria	-9.32906
tion	-9.32917
▁climate	-9.32921
▁difficult	-9.32921
▁job	-9.32985
▁Division	-9.33019
▁independent	-9.33062
▁Northern	-9.33075
gue	-9.33102
▁events	-9.33177
▁league	-9.33196
▁soon	-9.33217
▁Middle	-9.3325
▁Can	-9.33305
iv	-9.33332
▁Mc	-9.33339
nch	-9.33399
▁told	-9.33716
sur	-9.34096
▁Then	-9.34127
▁finished	-9.34134
▁described	-9.34309
pi	-9.34409
▁Another	-9.34453
▁rights	-9.34511
▁Atlantic	-9.34567
▁code	-9.34624
▁Year	-9.34678
▁animal	-9.34711
out	-9.34714
▁k	-9.34822
▁names	-9.34844
▁2004	-9.34845
▁kill	-9.34951
▁gas	-9.35033
ix	-9.35083
▁site	-9.35137
▁break	-9.35137
▁Switzerland	-9.35289
▁brought	-9.35336
▁Also	-9.35396
▁1993	-9.35439
▁view	-9.35489
ther	-9.35594
▁network	-9.35619
▁oldest	-9.35649
row	-9.35737
▁Ocean	-9.35902
▁musical	-9.3591
ek	-9.35914
▁4,	-9.35977
jo	-9.36039
▁dance	-9.36257
▁birds	-9.36279
nk	-9.36321
▁production	-9.36321
▁separate	-9.36473
▁author	-9.36601
▁Ku	-9.36639
tle	-9.36672
▁ago	-9.36684
mit	-9.36719
▁Bra	-9.3678
▁Awards	-9.36808
▁buildings	-9.36825
▁fourth	-9.37018
▁Prince	-9.37045
ps	-9.37055
ice	-9.37086
ches	-9.37166
▁2013	-9.37216
▁beginning	-9.37285
▁sports	-9.3729
▁1950	-9.37349
▁acid	-9.37784
ving	-9.37852
▁stories	-9.37861
▁2017	-9.3788
▁Mu	-9.3788
▁class	-9.37893
▁mo	-9.37946
▁business	-9.38
▁miles	-9.38096
▁quickly	-9.38134
▁humans	-9.38156
▁centre	-9.38212
also	-9.3839
▁biggest	-9.3839
▁project	-9.3839
▁Cla	-9.38465
▁al	-9.38472
▁26	-9.38517
▁Wales	-9.38591
▁Province	-9.38681
-19	-9.38744
well	-9.38792
ug	-9.38806
ins	-9.3886
▁itself	-9.38889
▁Gar	-9.38895
▁vote	-9.39111
▁Sometimes	-9.39171
▁damage	-9.39385
▁contains	-9.39424
▁2007,	-9.39428
ari	-9.39442
▁Ab	-9.39471
▁key	-9.39577
our	-9.39579
▁available	-9.39609
▁Lee	-9.39636
▁soldiers	-9.39639
▁rule	-9.39702
let	-9.39738
▁needed	-9.39802
q	-9.39826
▁1984	-9.39863
uc	-9.39941
▁speed	-9.40003
cu	-9.40065
sen	-9.40121
▁40	-9.40128
▁allow	-9.40133
▁Ve	-9.40134
▁summer	-9.40158
▁artist	-9.4019
▁unit	-9.40217
▁Bre	-9.40272
11	-9.4037
▁saw	-9.40402
▁Gra	-9.40419
ries	-9.4042
30	-9.40572
▁v	-9.406
▁standard	-9.40803
▁Don	-9.40957
▁1989	-9.41003
▁forms	-9.41015
▁vi	-9.41045
▁Tra	-9.41072
ile	-9.41127
▁grew	-9.41149
▁ways	-9.41262
har	-9.41276
▁mid	-9.41295
▁Green	-9.41391
▁problem	-9.41416
▁ba	-9.41467
▁protect	-9.41536
▁Pas	-9.4157
▁Martin	-9.41736
▁probably	-9.41741
qu	-9.41789
▁Act	-9.41816
vis	-9.41817
▁eastern	-9.41918
fi	-9.41947
▁1986	-9.41953
rm	-9.41962
ev	-9.41966
Calais	-9.41993
X	-9.42028
▁And	-9.42036
▁object	-9.42053
▁Sir	-9.42216
▁simple	-9.42395
▁call	-9.42441
▁1988	-9.42452
▁hockey	-9.42495
tch	-9.42504
▁friends	-9.42541
▁Si	-9.42629
illa	-9.42724
▁Today	-9.42727
▁middle	-9.42754
▁someone	-9.42779
▁features	-9.42939
▁NHL	-9.42948
▁function	-9.43029
▁Battle	-9.43055
▁About	-9.43062
▁(18	-9.43078
▁economic	-9.43083
cha	-9.43094
▁higher	-9.43172
ee	-9.43178
vel	-9.43194
▁community	-9.43205
▁education	-9.43205
zo	-9.43278
▁reason	-9.43495
spec	-9.43511
▁canton	-9.43544
▁List	-9.43636
▁fact	-9.43713
▁market	-9.43917
▁27	-9.44048
▁islands	-9.44066
▁charge	-9.44071
zi	-9.44085
▁Rome	-9.44116
fin	-9.44157
led	-9.4416
▁ring	-9.44188
eg	-9.44208
if	-9.44252
▁traditional	-9.44267
▁whole	-9.44396
▁systems	-9.44493
▁organization	-9.44697
▁Va	-9.44801
▁shape	-9.44988
ator	-9.45004
▁Mr	-9.45007
▁Hockey	-9.45052
▁ideas	-9.45075
for	-9.45083
wood	-9.45189
▁Disney	-9.45214
▁planet	-9.45297
▁episode	-9.45303
year	-9.45316
▁true	-9.4537
▁ra	-9.45388
ations	-9.45409
now	-9.45464
▁tree	-9.45516
▁square	-9.45572
▁feet	-9.45577
▁super	-9.45658
▁bank	-9.4566
port	-9.45682
12	-9.45685
▁causes	-9.45816
▁Korea	-9.45858
▁oil	-9.45993
ral	-9.45995
▁month	-9.4605
▁kept	-9.46146
▁week	-9.46204
ef	-9.46207
▁Emperor	-9.46303
ade	-9.46311
ping	-9.46339
▁tour	-9.46344
▁bridge	-9.46485
▁Old	-9.46501
▁followed	-9.46685
▁Men	-9.46762
rk	-9.469
▁Governor	-9.46935
known	-9.47044
▁novel	-9.4707
▁Sp	-9.4709
▁let	-9.47142
red	-9.47336
▁1987	-9.4742
▁road	-9.47522
tur	-9.47534
▁cut	-9.47554
▁points	-9.47563
▁happened	-9.47567
ez	-9.4765
▁male	-9.47706
▁28	-9.47707
▁Love	-9.47726
ara	-9.47774
tz	-9.47883
yl	-9.48012
▁le	-9.48017
▁face	-9.48151
▁northwest	-9.48276
head	-9.48287
▁Center	-9.48376
▁material	-9.48463
▁commonly	-9.48494
▁act	-9.48568
▁Han	-9.48596
▁Dutch	-9.48649
ene	-9.48721
▁WWE	-9.48723
▁inhabitants	-9.48853
▁Com	-9.48871
▁census	-9.49015
si	-9.49054
▁Fo	-9.49059
je	-9.49087
▁Football	-9.49231
ome	-9.49238
15	-9.49322
▁deal	-9.49373
qua	-9.49417
rie	-9.49465
▁Tom	-9.49488
▁Boy	-9.49492
▁green	-9.49532
▁nine	-9.49579
▁health	-9.49631
▁Jackson	-9.49696
▁refer	-9.4971
▁trade	-9.49728
▁Over	-9.49879
▁poor	-9.50017
▁Land	-9.50025
▁nu	-9.50072
▁colour	-9.50317
▁older	-9.50331
▁build	-9.50475
▁Blue	-9.50552
▁kinds	-9.50633
day	-9.50749
▁relationship	-9.50757
ep	-9.50761
▁championship	-9.50815
▁leave	-9.50817
▁shot	-9.50825
▁birth	-9.50854
▁Pacific	-9.50919
▁Korean	-9.50958
pur	-9.51024
▁wide	-9.51025
▁spread	-9.51032
ew	-9.51186
▁medal	-9.51198
▁2003	-9.51288
yo	-9.51395
▁religious	-9.51525
▁active	-9.51532
▁schools	-9.51543
nder	-9.51551
▁paper	-9.51554
▁1976	-9.51702
rt	-9.51753
▁raised	-9.51769
▁reaction	-9.51787
▁fall	-9.51832
▁wood	-9.5186
▁1982	-9.51864
▁asked	-9.51886
ning	-9.51901
▁Sam	-9.51909
▁subject	-9.51913
▁Pope	-9.52094
▁plane	-9.52096
▁Jack	-9.52297
▁table	-9.52394
▁rivers	-9.52396
lie	-9.52417
vin	-9.52503
lk	-9.52661
▁Pri	-9.52689
▁rather	-9.52707
ag	-9.52811
off	-9.52836
▁tells	-9.52842
▁magazine	-9.5286
▁bit	-9.52875
▁29	-9.52909
▁Mor	-9.53085
▁track	-9.53183
▁Pan	-9.53216
▁below	-9.53235
▁Jewish	-9.53256
▁organ	-9.53378
ren	-9.53426
her	-9.53518
▁box	-9.53538
▁throughout	-9.5364
▁Association	-9.53648
▁destroyed	-9.53689
▁ran	-9.5377
▁aircraft	-9.53883
▁normal	-9.53945
▁Un	-9.53947
▁spent	-9.54029
▁6,	-9.54083
▁1997	-9.54259
▁genus	-9.54271
lar	-9.54412
ire	-9.54421
▁exist	-9.54461
▁depend	-9.54566
ei	-9.54576
▁crime	-9.54615
▁1974	-9.54622
▁1985	-9.54679
end	-9.54721
▁competition	-9.54726
▁source	-9.54754
▁reach	-9.54883
▁5,	-9.54931
▁camp	-9.54979
▁hot	-9.54997
▁Port	-9.55092
▁200	-9.5516
▁text	-9.55177
▁Prize	-9.55196
▁III	-9.55227
▁turn	-9.55256
▁ha	-9.55272
▁Lord	-9.55298
pro	-9.5532
▁talk	-9.55378
▁2018	-9.55382
▁coach	-9.5547
18	-9.55522
▁generally	-9.55587
town	-9.55596
▁Sal	-9.55655
▁31	-9.55669
▁More	-9.55811
▁try	-9.55839
▁action	-9.55863
▁2002	-9.55962
▁skin	-9.55968
shire	-9.55973
▁introduced	-9.56021
▁learn	-9.56064
car	-9.56077
▁deep	-9.56102
▁distance	-9.56105
▁heavy	-9.56163
▁Je	-9.56167
ett	-9.56215
▁recording	-9.5622
af	-9.56263
▁Records	-9.56302
▁powerful	-9.56316
ugh	-9.56423
▁tell	-9.56528
my	-9.56537
▁Both	-9.56566
▁drive	-9.56626
▁contract	-9.56627
▁Parliament	-9.56685
▁hold	-9.56713
▁cross	-9.56737
▁fruit	-9.56743
▁Street	-9.56757
▁Big	-9.56814
cent	-9.56822
▁manager	-9.56968
▁private	-9.56976
▁rules	-9.57157
▁Par	-9.57198
▁1972	-9.5722
▁Yu	-9.57353
lon	-9.57548
▁comedy	-9.57549
ible	-9.57553
ize	-9.57589
▁7,	-9.57655
▁equal	-9.57698
▁pass	-9.57726
▁chart	-9.5777
▁practice	-9.57915
▁regular	-9.57935
all	-9.57987
▁brain	-9.57995
▁Mario	-9.58021
▁Ed	-9.58121
17	-9.58148
▁Val	-9.58179
ok	-9.58386
ik	-9.58393
ls	-9.58407
▁orchestra	-9.58506
over	-9.58542
▁Hill	-9.5869
▁Jr	-9.58922
▁awarded	-9.58981
▁railway	-9.58987
▁laws	-9.59041
mes	-9.59049
▁1975	-9.59052
▁Jesus	-9.59103
ast	-9.59199
▁port	-9.592
▁lo	-9.59252
▁Shi	-9.59279
▁Second	-9.59279
▁medical	-9.59279
▁1973	-9.59289
▁appear	-9.59312
ken	-9.59376
▁fought	-9.59398
▁Smith	-9.59399
gon	-9.59411
▁gets	-9.59476
stone	-9.59563
▁room	-9.59564
ular	-9.59588
▁cases	-9.59612
▁Austria	-9.59637
▁stay	-9.59652
play	-9.59689
▁cold	-9.59757
ons	-9.59761
▁seasons	-9.59779
▁cost	-9.59803
▁Victoria	-9.59805
▁Wood	-9.59834
▁Brazil	-9.59836
ization	-9.59902
▁award	-9.59916
▁Swedish	-9.59938
▁11,	-9.59947
▁Even	-9.59978
▁Ki	-9.59991
ose	-9.60007
▁companies	-9.60058
The	-9.60059
ates	-9.60094
of	-9.60103
tus	-9.60115
▁stopped	-9.60132
ever	-9.60198
Y	-9.60209
eu	-9.60226
▁dark	-9.60257
▁gives	-9.60274
▁Force	-9.60275
▁husband	-9.60299
▁Bill	-9.60382
ore	-9.60394
▁starting	-9.60405
hal	-9.60409
ious	-9.60412
▁behind	-9.60481
▁media	-9.60509
▁legal	-9.60588
▁Za	-9.60789
oo	-9.60802
▁Joseph	-9.60813
▁1978	-9.60976
▁sexual	-9.60984
▁piece	-9.61061
▁w	-9.6112
25	-9.61124
▁matches	-9.61256
▁rich	-9.61329
▁heat	-9.61409
ks	-9.61472
rn	-9.61489
▁meant	-9.61567
ero	-9.6171
og	-9.6171
sis	-9.61712
▁hospital	-9.61819
so	-9.6182
▁friend	-9.61822
▁marriage	-9.61942
▁machine	-9.6197
▁Cu	-9.61975
▁Dan	-9.62064
ris	-9.62222
▁goal	-9.62224
ld	-9.62244
▁letter	-9.62264
▁t	-9.62292
▁services	-9.62302
▁1969	-9.62321
ano	-9.62397
▁train	-9.62415
▁Court	-9.62418
▁turned	-9.62436
▁leaves	-9.62554
ets	-9.62628
▁newspaper	-9.6268
80	-9.62688
nce	-9.62777
fer	-9.62802
▁effect	-9.62883
▁Berlin	-9.62894
ified	-9.62907
▁reported	-9.62926
▁trees	-9.6301
▁pressure	-9.6306
▁addition	-9.63108
▁block	-9.63185
▁selected	-9.63206
bert	-9.63229
▁stone	-9.63264
▁lake	-9.63277
▁spin	-9.63278
yn	-9.63309
▁1971	-9.6331
▁Art	-9.63391
▁Municipality	-9.63429
▁teacher	-9.63503
▁em	-9.63539
can	-9.63716
▁section	-9.63816
▁flight	-9.6387
▁8,	-9.6387
▁Irish	-9.64042
▁Museum	-9.64049
▁2014)	-9.64076
pl	-9.64091
▁Cre	-9.64241
▁Eastern	-9.64251
▁appearance	-9.64256
ita	-9.64434
▁cover	-9.64447
▁Bal	-9.64451
▁owned	-9.64545
▁structure	-9.64604
▁15,	-9.64621
▁units	-9.64629
▁Van	-9.64646
▁fast	-9.64721
old	-9.64726
ue	-9.6474
40	-9.64823
▁performance	-9.65009
▁lines	-9.65041
par	-9.65051
▁Ad	-9.65084
▁influence	-9.65139
▁2011,	-9.65155
▁10,	-9.65259
▁defeated	-9.65272
▁winter	-9.65317
▁1968	-9.6532
▁9,	-9.65399
▁Duke	-9.65432
▁plan	-9.65488
▁farm	-9.65509
▁here	-9.65554
▁join	-9.65725
▁12,	-9.6575
▁roles	-9.65752
▁bring	-9.65843
▁moving	-9.65957
iti	-9.65991
▁ho	-9.66096
▁2008,	-9.66147
ath	-9.66286
hen	-9.66291
ye	-9.66297
▁Min	-9.66353
▁campaign	-9.66394
▁native	-9.66533
ped	-9.66563
▁mu	-9.66681
ato	-9.6676
▁Airport	-9.66796
mal	-9.6682
▁Brown	-9.66915
lam	-9.66918
▁degree	-9.6704
▁collection	-9.67113
▁Nu	-9.67174
16	-9.67211
▁physical	-9.67231
▁my	-9.67335
▁Egypt	-9.6735
▁showed	-9.67477
▁2015	-9.67509
▁warm	-9.67534
ica	-9.67551
cle	-9.67556
▁Like	-9.67612
▁1977	-9.67633
▁die	-9.67665
▁already	-9.67684
iki	-9.67732
▁cr	-9.67733
ena	-9.67812
gr	-9.67852
ata	-9.67928
▁hours	-9.68077
▁label	-9.68098
▁1930	-9.68099
▁involved	-9.68209
▁pop	-9.68247
wn	-9.68335
▁hair	-9.6844
ative	-9.6846
▁Club	-9.68533
▁2010.	-9.68613
▁Company	-9.68729
▁1967	-9.68807
▁engine	-9.68866
▁26,	-9.68921
▁Elizabeth	-9.68926
▁Mount	-9.68949
▁care	-9.68956
▁Carolina	-9.68998
▁airport	-9.69016
▁Pla	-9.69035
▁passed	-9.69054
▁Scottish	-9.69071
▁pieces	-9.69079
60	-9.69189
▁sign	-9.692
▁prison	-9.69201
▁guitar	-9.69201
▁composer	-9.69204
▁Mal	-9.69258
ox	-9.69275
▁pi	-9.6932
▁watch	-9.69329
▁para	-9.69372
14	-9.69386
▁nominated	-9.69454
▁stadium	-9.69454
▁value	-9.69471
▁Southern	-9.69479
▁becoming	-9.69522
iz	-9.69522
▁step	-9.69596
▁earlier	-9.69719
▁basic	-9.69765
▁inter	-9.69773
▁Mark	-9.69804
▁Q	-9.69926
▁taking	-9.69928
▁Fu	-9.69967
▁2007.	-9.69972
▁sun	-9.70115
▁Islands	-9.70241
▁purpose	-9.70317
hr	-9.70374
▁Hurricane	-9.70384
▁complex	-9.70385
▁placed	-9.70409
▁Maria	-9.70413
▁sa	-9.70414
▁eventually	-9.70451
▁1940	-9.7047
▁Time	-9.7056
nie	-9.70612
▁Israel	-9.70641
bal	-9.70682
▁Mont	-9.70684
▁dry	-9.70703
▁2008.	-9.70713
▁Pat	-9.70724
▁Democratic	-9.70748
▁comp	-9.70775
▁forced	-9.7083
▁origin	-9.70878
▁covered	-9.70953
▁Frank	-9.70967
▁scored	-9.70994
▁Young	-9.71021
▁21,	-9.71022
▁13,	-9.71103
▁moon	-9.71176
▁Hol	-9.71247
▁fighting	-9.71312
▁industry	-9.7139
▁albums	-9.7142
▁ta	-9.71439
▁Congress	-9.71457
▁22,	-9.71501
▁ruled	-9.71509
▁Netherlands	-9.71525
▁1979	-9.71606
▁self	-9.71614
▁Christ	-9.71688
American	-9.71693
▁territory	-9.71727
lt	-9.71753
▁27,	-9.71769
▁Is	-9.71783
▁Hy	-9.71786
ani	-9.71854
▁nature	-9.71871
▁towards	-9.71887
gel	-9.7192
▁rain	-9.71925
▁electric	-9.72066
bl	-9.72068
▁getting	-9.7207
sha	-9.7211
ough	-9.72193
▁date	-9.72196
▁rate	-9.72198
fo	-9.72216
▁Little	-9.7227
▁su	-9.72276
house	-9.72277
▁nearly	-9.72309
sch	-9.72317
▁ocean	-9.72338
▁visit	-9.72476
▁increase	-9.72581
▁20,	-9.72586
▁Asian	-9.7263
▁parish	-9.72691
▁2006,	-9.72779
▁develop	-9.72797
idae	-9.72798
mor	-9.72893
▁reviews	-9.72902
ini	-9.72937
▁Civil	-9.72956
tive	-9.72978
bar	-9.73073
▁25,	-9.73089
▁1981	-9.73158
▁board	-9.7319
▁Sh	-9.73193
▁debut	-9.73193
▁flow	-9.73241
▁our	-9.73275
▁artists	-9.7336
▁split	-9.73376
stra	-9.73391
ura	-9.73439
▁why	-9.73444
vent	-9.73459
▁except	-9.73474
▁2009.	-9.73483
▁buried	-9.73502
▁cast	-9.73509
▁Hot	-9.7351
▁programs	-9.73558
cal	-9.73569
ala	-9.73637
▁experiment	-9.73639
ette	-9.73699
▁pe	-9.73755
▁Night	-9.73759
kh	-9.73772
▁2011.	-9.73907
▁beat	-9.73909
▁1983	-9.73987
▁na	-9.73995
part	-9.7404
▁broadcast	-9.74055
▁Billboard	-9.74059
▁Pen	-9.74061
▁matter	-9.74074
pen	-9.74093
13	-9.74129
▁23,	-9.74153
▁Republican	-9.74239
▁Golden	-9.74382
▁double	-9.74471
▁secret	-9.74516
▁society	-9.7454
▁nuclear	-9.74589
▁location	-9.74679
▁actually	-9.74679
▁simply	-9.74749
▁Secretary	-9.74755
oid	-9.74798
▁piano	-9.74826
ient	-9.74836
▁16,	-9.74934
▁Institute	-9.74987
▁Line	-9.75004
cher	-9.75008
▁defend	-9.75029
▁28,	-9.75034
din	-9.75174
ric	-9.75214
ery	-9.75232
▁tournament	-9.75238
ual	-9.75265
▁runs	-9.75309
▁complete	-9.75362
▁happen	-9.75395
▁24,	-9.75404
▁da	-9.75407
istic	-9.75415
▁easily	-9.75448
▁scale	-9.75462
▁Brazilian	-9.75497
▁enter	-9.75535
ray	-9.75562
▁strength	-9.75659
▁14,	-9.75671
▁flat	-9.75673
▁interest	-9.75727
▁copies	-9.7573
▁quite	-9.758
ens	-9.75823
▁19,	-9.75828
▁orbit	-9.75854
▁your	-9.75884
▁Santa	-9.76017
▁fa	-9.76041
ration	-9.76049
▁60	-9.76111
▁southwest	-9.76165
▁Book	-9.76207
▁Nazi	-9.7629
▁running	-9.76316
▁Nord	-9.76341
▁elements	-9.76351
▁Cal	-9.76387
▁method	-9.76542
▁towns	-9.76638
▁cha	-9.76659
▁1964	-9.7673
mun	-9.76758
▁poet	-9.76764
▁2009,	-9.76784
▁2015)	-9.76792
▁museum	-9.76862
▁future	-9.76936
▁Will	-9.7702
▁(20	-9.77029
▁Cho	-9.77145
▁studies	-9.77147
▁Tour	-9.77187
dra	-9.77197
▁positive	-9.77201
▁goals	-9.77212
▁Valley	-9.77248
▁Sta	-9.77251
▁Mer	-9.77357
▁carbon	-9.77408
back	-9.77433
▁2.	-9.7755
▁leading	-9.77618
▁share	-9.77693
▁eggs	-9.77797
▁1920	-9.77824
▁fun	-9.77835
▁cap	-9.77881
▁Ol	-9.7795
▁cur	-9.78045
▁Mad	-9.781
▁Bridge	-9.78111
▁flag	-9.78164
▁Show	-9.78211
▁spoken	-9.78308
▁scene	-9.78313
az	-9.78349
▁Not	-9.78364
▁trans	-9.78396
21	-9.78456
▁families	-9.78497
▁weeks	-9.78524
▁feed	-9.78573
▁calendar	-9.78586
▁1945	-9.78601
▁serve	-9.78603
▁prevent	-9.78603
▁thing	-9.78646
▁widely	-9.78648
▁website	-9.78659
▁sh	-9.78723
▁Zealand	-9.78876
▁clear	-9.78938
▁greatest	-9.78946
▁musician	-9.78966
lf	-9.79007
mu	-9.7901
▁districts	-9.79016
▁Song	-9.79049
▁sex	-9.79061
70	-9.79141
matic	-9.79258
ola	-9.79295
▁individual	-9.79299
tar	-9.79462
▁historical	-9.79485
▁send	-9.79494
▁2013.	-9.79577
▁officially	-9.7964
▁street	-9.79678
ib	-9.79791
▁sport	-9.79846
▁Poland	-9.79864
▁supported	-9.79889
cho	-9.799
unt	-9.7997
▁bomb	-9.79976
hel	-9.79993
▁terms	-9.80005
yan	-9.8005
▁generation	-9.80127
▁buy	-9.80188
▁Jersey	-9.80192
▁boy	-9.80194
▁minor	-9.80238
▁mark	-9.80286
▁Dar	-9.80296
fl	-9.80324
▁2020	-9.80536
▁wind	-9.80639
fu	-9.80651
▁Game	-9.80701
▁Ber	-9.80718
lli	-9.80736
▁1965	-9.80796
top	-9.80922
▁ships	-9.81033
92	-9.81053
ash	-9.81063
▁further	-9.81159
▁fifth	-9.81228
▁imp	-9.81316
xi	-9.81349
▁environment	-9.81352
ble	-9.81355
▁software	-9.81454
▁Far	-9.81478
nic	-9.81482
▁Law	-9.81486
ick	-9.8152
▁driver	-9.81538
▁Kentucky	-9.81601
▁troops	-9.81601
▁Free	-9.81763
bit	-9.81765
▁mixed	-9.81779
▁featured	-9.81804
▁Nintendo	-9.81825
pha	-9.81826
▁Long	-9.81848
▁2014,	-9.81915
▁measure	-9.81951
ane	-9.81978
▁weight	-9.8198
▁1966	-9.82063
▁route	-9.82127
▁cor	-9.82222
▁attempt	-9.82304
oma	-9.82304
90	-9.82336
▁Wo	-9.82337
▁foot	-9.82369
non	-9.82382
▁i	-9.8245
▁Life	-9.82552
▁29,	-9.82578
art	-9.826
▁Government	-9.82651
▁Boston	-9.82658
rit	-9.82686
▁bought	-9.82727
cus	-9.82735
▁score	-9.82804
▁Georgia	-9.8287
▁Nobel	-9.82899
▁Harry	-9.82963
▁17,	-9.83013
▁becomes	-9.83085
▁rank	-9.83147
▁drama	-9.8316
▁weak	-9.83178
▁commercial	-9.83181
dor	-9.83215
▁whether	-9.83257
▁del	-9.83277
su	-9.83289
▁30,	-9.83331
▁nation	-9.8334
▁Three	-9.83413
▁direction	-9.8346
▁hi	-9.83479
▁winner	-9.8354
▁ob	-9.83555
tern	-9.83574
▁access	-9.83583
▁acting	-9.83611
sky	-9.83613
▁feel	-9.83634
▁remains	-9.83646
lit	-9.83671
▁Jean	-9.8372
pu	-9.83799
▁governor	-9.83816
ese	-9.83821
86	-9.83884
▁personal	-9.8389
▁billion	-9.8391
▁count	-9.83915
▁fr	-9.83925
▁1947	-9.83955
▁yellow	-9.84019
▁minister	-9.84033
▁god	-9.84039
▁Ter	-9.84049
which	-9.84075
▁Pennsylvania	-9.84095
len	-9.84095
ack	-9.84111
▁2006.	-9.84145
ili	-9.84274
▁letters	-9.84293
▁18,	-9.84312
cker	-9.84482
dent	-9.8451
▁90	-9.8454
▁bu	-9.84553
▁minutes	-9.84609
act	-9.84693
▁liquid	-9.84709
die	-9.84794
▁provide	-9.84811
▁Gal	-9.84848
▁Bank	-9.8489
body	-9.84922
use	-9.84949
▁y	-9.8497
ition	-9.85007
▁murder	-9.85056
▁according	-9.85095
▁wa	-9.85162
▁Gold	-9.85201
▁sell	-9.85215
▁particular	-9.85248
▁direct	-9.85301
las	-9.85324
ture	-9.85359
▁2013,	-9.85382
war	-9.85424
▁solid	-9.85438
▁bird	-9.85473
▁tu	-9.85497
mph	-9.85582
▁doing	-9.85625
▁add	-9.85643
mann	-9.85693
▁layer	-9.85717
zz	-9.8573
▁sw	-9.85823
▁referred	-9.85883
ym	-9.85925
ised	-9.85941
▁Win	-9.86001
▁1961	-9.86038
ians	-9.86085
▁decision	-9.86105
▁Sc	-9.86125
▁slow	-9.86147
▁tradition	-9.86185
▁recent	-9.86195
▁display	-9.86204
▁Team	-9.86279
▁Scott	-9.86298
amp	-9.86434
▁objects	-9.86636
▁medicine	-9.86732
▁mountains	-9.86808
▁2005,	-9.8683
▁Up	-9.86886
▁pair	-9.8689
▁course	-9.86966
▁1963	-9.86981
bon	-9.87042
light	-9.87073
▁1948	-9.87136
▁training	-9.87147
▁Windows	-9.87205
5,000	-9.87218
▁defeat	-9.87253
▁Ci	-9.87407
▁solo	-9.87529
▁Road	-9.87548
▁Good	-9.87583
▁Columbia	-9.876
▁economy	-9.876
▁oxygen	-9.876
▁treatment	-9.87642
▁composed	-9.87642
rum	-9.8773
▁Major	-9.87759
▁Kar	-9.87765
▁Fire	-9.87777
▁Doctor	-9.87778
▁80	-9.8782
ua	-9.87858
▁(1	-9.87871
rat	-9.87902
▁wall	-9.87926
▁really	-9.87947
89	-9.87999
27	-9.88035
ctor	-9.88055
▁Massachusetts	-9.88077
▁taught	-9.88079
▁Ser	-9.88105
▁closed	-9.8815
▁bacteria	-9.8816
ids	-9.88216
▁era	-9.88245
▁likely	-9.8825
▁cars	-9.88255
▁Fin	-9.88391
▁winning	-9.88391
▁Cat	-9.88424
put	-9.88436
▁trying	-9.88456
Alpes	-9.88462
▁listed	-9.88492
▁Four	-9.88558
▁pen	-9.88645
▁happens	-9.8866
▁Senate	-9.88661
▁Bel	-9.88677
▁evidence	-9.88716
▁shark	-9.88727
del	-9.88785
▁bus	-9.88786
▁Science	-9.88877
▁pick	-9.88883
▁worldwide	-9.88893
▁owner	-9.8891
▁offer	-9.88915
▁Only	-9.88936
24	-9.88937
▁foreign	-9.8896
▁Department	-9.89118
not	-9.89175
▁sand	-9.89187
▁(;	-9.89202
▁Ran	-9.89239
elle	-9.89327
▁girl	-9.89361
▁1949	-9.89373
▁attacked	-9.89401
▁conditions	-9.89511
▁Ali	-9.8953
▁genetic	-9.89542
▁)	-9.89547
▁normally	-9.89583
rate	-9.89602
▁string	-9.89684
avi	-9.89722
▁Er	-9.8976
▁employ	-9.89764
▁Joe	-9.89804
▁tri	-9.8983
23	-9.89869
99	-9.89921
ute	-9.89929
▁drink	-9.8995
▁failure	-9.90012
▁mission	-9.90017
uk	-9.90063
▁reign	-9.90068
▁remained	-9.90099
▁Bell	-9.9016
▁Oklahoma	-9.9017
▁channel	-9.9017
▁entire	-9.90181
▁products	-9.90217
▁semi	-9.90234
▁needs	-9.90243
tte	-9.90245
▁Water	-9.90269
53	-9.90297
▁Bull	-9.9031
tsu	-9.9033
▁regions	-9.90343
▁follow	-9.90381
▁tail	-9.9041
rop	-9.90411
aw	-9.90421
▁1956	-9.90429
▁Mag	-9.90431
▁finish	-9.90483
▁Navy	-9.90514
▁Kan	-9.90524
▁Bible	-9.90577
▁painting	-9.90585
▁Nor	-9.90613
▁scientists	-9.90653
▁Ontario	-9.90659
▁experience	-9.9067
▁meeting	-9.90684
▁product	-9.90846
bra	-9.90877
▁Fort	-9.90893
lia	-9.90896
▁wild	-9.90903
▁multiple	-9.90906
▁Eu	-9.90937
▁im	-9.90958
▁Out	-9.90975
▁forest	-9.91043
▁Group	-9.91082
▁2012.	-9.91133
▁describe	-9.9115
▁Alexander	-9.9115
04	-9.91151
▁eye	-9.91152
ella	-9.91177
▁Champion	-9.91302
▁fe	-9.91314
22	-9.91374
▁arrondissement	-9.91381
▁saying	-9.91397
▁Jane	-9.91441
▁removed	-9.91445
▁Series	-9.91464
▁awards	-9.91547
uch	-9.91598
▁honor	-9.91626
▁map	-9.91701
▁Ram	-9.91707
▁starts	-9.91721
▁Formula	-9.91727
▁weapons	-9.91728
ments	-9.91795
▁starred	-9.91828
▁Albert	-9.91846
ller	-9.91856
▁connect	-9.91897
▁horse	-9.91954
▁gun	-9.9197
▁Iran	-9.92031
▁merged	-9.92058
ean	-9.9215
vers	-9.92225
▁earth	-9.92232
▁instrument	-9.92249
▁Reg	-9.92276
▁student	-9.92307
▁couple	-9.92345
▁stations	-9.92482
ple	-9.92496
▁chosen	-9.92511
▁iron	-9.92587
▁Winter	-9.92599
▁records	-9.92603
▁Ye	-9.92604
▁km	-9.92638
▁Christmas	-9.92642
▁Inter	-9.9267
98	-9.92673
▁nearby	-9.92724
▁Stone	-9.92734
▁occur	-9.92872
▁centuries	-9.9289
▁sense	-9.9291
▁doctor	-9.92943
▁tall	-9.92974
▁previous	-9.92984
▁sha	-9.93064
▁Lady	-9.9321
▁Class	-9.93259
ms	-9.93286
▁mouth	-9.93314
▁Ken	-9.93339
ces	-9.93347
▁huge	-9.93412
zy	-9.93484
ula	-9.93493
▁command	-9.93526
oy	-9.93571
▁wear	-9.93592
▁Tim	-9.93599
ase	-9.93629
▁Wrestling	-9.93645
ification	-9.93726
▁urban	-9.9373
▁hill	-9.93751
▁DNA	-9.93762
▁Jones	-9.93828
▁signal	-9.93842
▁receive	-9.93918
▁Cro	-9.93945
▁Bla	-9.93959
▁eyes	-9.9397
▁invented	-9.93992
▁1944	-9.93992
▁Ph	-9.94051
▁Service	-9.94069
nn	-9.9407
Z	-9.94119
▁page	-9.94133
▁broke	-9.94136
▁Part	-9.9416
28	-9.94183
ski	-9.94192
▁etc	-9.94195
96	-9.94217
▁upper	-9.94225
26	-9.94237
▁Under	-9.94259
▁salt	-9.94304
▁System	-9.94321
▁weather	-9.94334
▁branch	-9.94357
▁effects	-9.94424
▁connected	-9.94424
▁Women	-9.94425
▁Bri	-9.9447
▁figure	-9.94489
▁kingdom	-9.94505
77	-9.94561
▁disorder	-9.94584
▁attacks	-9.94617
stein	-9.94633
▁Society	-9.94661
▁Sho	-9.94711
▁royal	-9.94746
▁scientific	-9.94746
▁drug	-9.9476
▁wrestler	-9.94786
fish	-9.9492
▁dog	-9.95011
ines	-9.95035
▁AD	-9.95079
▁Jos	-9.95138
▁Francisco	-9.95198
▁electronic	-9.95226
▁fo	-9.95253
▁concept	-9.95365
▁Coast	-9.95398
▁specific	-9.9542
▁feature	-9.95476
ole	-9.95484
▁walk	-9.95492
▁valley	-9.95516
▁serious	-9.95604
▁instruments	-9.95651
▁perform	-9.95723
▁floor	-9.95813
▁allows	-9.9582
mate	-9.95859
▁che	-9.95948
45	-9.95951
▁2005.	-9.9601
lock	-9.96019
▁hole	-9.9602
▁Top	-9.96022
▁singles	-9.96043
mat	-9.96129
▁decide	-9.96144
ram	-9.96165
▁refers	-9.96219
lor	-9.96301
▁Internet	-9.96382
dia	-9.96435
▁BBC	-9.9649
▁Cross	-9.96525
▁speech	-9.9655
▁1962	-9.96564
▁screen	-9.96589
▁Nations	-9.96592
▁mi	-9.96596
▁file	-9.96596
ult	-9.96682
ace	-9.96693
▁spot	-9.96704
bel	-9.9679
▁pu	-9.9679
▁Br	-9.96824
▁opening	-9.96961
▁Fame	-9.96992
35	-9.97074
ich	-9.97075
▁Rose	-9.97076
▁2014.	-9.97144
▁Carl	-9.97148
▁adult	-9.97158
air	-9.97188
▁70	-9.97215
▁Muslim	-9.97246
▁Tokyo	-9.97246
ants	-9.97264
▁fi	-9.9738
ned	-9.97386
05	-9.97391
net	-9.97392
▁Kansas	-9.97423
▁Stanley	-9.97433
▁understand	-9.97483
▁Greece	-9.97508
▁Im	-9.97521
more	-9.97525
▁Pol	-9.97533
▁Fox	-9.9754
93	-9.97616
▁Islam	-9.97693
pr	-9.97725
▁condition	-9.97793
ob	-9.97827
▁Town	-9.97841
▁agent	-9.97877
▁Mel	-9.97919
▁bigger	-9.97921
▁account	-9.97948
▁Now	-9.97981
▁Every	-9.98011
eb	-9.98019
era	-9.98058
▁Entertainment	-9.98123
▁festival	-9.98123
▁Film	-9.98124
mic	-9.98258
▁critics	-9.98268
▁relative	-9.98319
▁tr	-9.98323
rac	-9.98335
▁Kim	-9.98349
▁Ohio	-9.98388
med	-9.98388
cin	-9.98396
▁ruler	-9.98418
▁boat	-9.98421
▁USA	-9.98432
▁pattern	-9.98476
var	-9.98541
94	-9.98604
▁flows	-9.98611
▁alcohol	-9.98653
▁cultural	-9.98688
▁Kong	-9.98706
▁Tru	-9.98719
▁Revolution	-9.98722
lla	-9.9876
gent	-9.98776
board	-9.98783
▁Del	-9.98783
▁Tor	-9.98811
▁upon	-9.98879
ory	-9.98882
lus	-9.98893
▁Char	-9.98898
▁fit	-9.98913
▁Ten	-9.98916
▁don	-9.99031
▁computers	-9.9907
▁flood	-9.99105
▁levels	-9.9915
▁federal	-9.99185
▁Au	-9.99221
ille	-9.99227
▁accident	-9.99261
▁sing	-9.99301
▁edition	-9.99378
▁versions	-9.99409
▁Tal	-9.9943
wing	-9.99461
▁houses	-9.99478
▁fuel	-9.99488
ame	-9.99601
bin	-9.99608
▁Federal	-9.99632
▁1952	-9.99644
▁Festival	-9.99721
▁reasons	-9.99748
hor	-9.99753
▁appears	-9.99757
▁affect	-9.99821
▁completely	-9.99832
▁Ly	-9.99921
worth	-10
til	-10.0005
▁meet	-10.0008
wan	-10.0015
▁dpartement	-10.0017
▁picture	-10.0017
▁strip	-10.0017
▁brand	-10.0019
▁Trans	-10.002
ico	-10.0024
▁Committee	-10.0026
▁twice	-10.0026
ges	-10.0029
▁0.	-10.0032
▁lu	-10.0033
▁qu	-10.0036
▁Sk	-10.0043
uff	-10.0043
▁technology	-10.0044
▁directly	-10.0044
▁1954	-10.0045
▁print	-10.0047
01	-10.0049
▁castle	-10.0049
▁entered	-10.0053
▁appointed	-10.0053
▁Sto	-10.0054
▁Tre	-10.0062
▁teaching	-10.0062
▁Cast	-10.0063
▁concert	-10.0064
poli	-10.0065
▁comic	-10.0065
▁carry	-10.0069
▁giving	-10.0071
▁chief	-10.0081
83	-10.0086
rent	-10.0087
ax	-10.0092
▁1941	-10.01
▁fat	-10.01
▁Comp	-10.0105
▁judge	-10.0107
lum	-10.0113
▁document	-10.0114
▁settlement	-10.0127
▁completed	-10.0127
fr	-10.013
▁1946	-10.0145
▁1957	-10.0145
▁explain	-10.0154
76	-10.0159
▁episodes	-10.0163
▁1959	-10.0163
▁earned	-10.0166
▁silver	-10.0171
nia	-10.0171
▁1955	-10.0173
work	-10.0176
cia	-10.0177
ky	-10.0179
▁Polish	-10.0182
pper	-10.0183
▁message	-10.0189
▁search	-10.019
▁Cur	-10.0191
▁paid	-10.0206
▁divorced	-10.0207
▁Belgian	-10.0208
▁independence	-10.0208
▁Arthur	-10.0208
▁fly	-10.0215
56	-10.0218
aries	-10.0219
▁2019	-10.022
cer	-10.022
▁carried	-10.0226
▁primary	-10.0244
▁emperor	-10.0244
▁store	-10.0244
arch	-10.0246
▁Loire	-10.0247
▁catch	-10.0251
▁Ze	-10.0261
▁garden	-10.0263
▁stand	-10.0268
▁tourist	-10.0269
07	-10.0273
▁cool	-10.0278
▁safe	-10.0283
▁municipalities	-10.0286
▁Ham	-10.0287
ological	-10.029
▁finally	-10.0291
▁bright	-10.0291
gh	-10.0291
▁workers	-10.0291
▁Cam	-10.0292
lle	-10.0296
itz	-10.0298
▁sleep	-10.03
star	-10.03
▁peace	-10.0301
▁covers	-10.0303
▁limit	-10.0304
tha	-10.0305
▁Yo	-10.0313
▁x	-10.032
rin	-10.032
ith	-10.032
▁focus	-10.0321
ball	-10.0323
rich	-10.0327
▁Tropical	-10.0327
▁helps	-10.0334
▁Austrian	-10.0337
arian	-10.0338
view	-10.0345
▁Daniel	-10.0346
▁jump	-10.0347
▁1958	-10.0347
▁administrative	-10.0355
▁Anne	-10.0359
▁Arab	-10.0361
lly	-10.0362
▁sail	-10.0362
▁trains	-10.0362
▁element	-10.0364
▁Ty	-10.0371
▁Human	-10.0373
▁Ford	-10.0375
▁destroy	-10.0376
▁captured	-10.038
ography	-10.0388
▁fiction	-10.0389
▁Fre	-10.0394
▁disc	-10.0395
75	-10.0396
▁Johnson	-10.0399
▁Reagan	-10.0402
▁consider	-10.0404
▁Sydney	-10.0411
▁ability	-10.0418
▁photograph	-10.0421
97	-10.0421
▁looks	-10.0432
▁influenced	-10.0436
▁Vo	-10.0437
II	-10.0441
▁growing	-10.0448
▁property	-10.045
▁Tho	-10.0456
▁bass	-10.0457
▁bodies	-10.0458
▁recognized	-10.0479
▁transport	-10.0482
zu	-10.0485
▁tax	-10.0488
chu	-10.0496
▁crash	-10.0496
▁Fri	-10.05
▁collect	-10.0507
▁younger	-10.0513
▁Andrew	-10.0515
▁Williams	-10.052
▁app	-10.0522
▁contain	-10.0524
▁leaving	-10.0524
▁animated	-10.0524
▁1942	-10.0526
▁motor	-10.0534
kar	-10.0537
▁Medal	-10.0544
▁spring	-10.0545
gre	-10.0546
ave	-10.0546
▁Khan	-10.0547
▁shell	-10.0547
▁controlled	-10.0556
▁agreed	-10.0564
▁Fall	-10.0566
▁extra	-10.0566
▁multi	-10.0566
▁bottom	-10.0571
▁memory	-10.0581
▁opposite	-10.0581
▁Live	-10.0584
ona	-10.0589
▁hero	-10.0592
▁Luc	-10.0592
▁leaders	-10.0593
▁Egyptian	-10.0601
▁growth	-10.0608
▁1939	-10.0611
▁legs	-10.0618
▁l	-10.0619
84	-10.0619
▁Ger	-10.0624
▁Les	-10.0626
▁Ancient	-10.0629
▁basketball	-10.0629
▁Kelly	-10.063
▁Jews	-10.0636
▁Chris	-10.0637
▁custom	-10.0638
▁yet	-10.0645
▁sal	-10.0646
met	-10.0647
dom	-10.0648
▁Angel	-10.0653
▁insects	-10.0654
▁Op	-10.0656
mont	-10.0661
500	-10.0662
▁stayed	-10.0665
▁enemy	-10.0667
29	-10.0667
▁2004,	-10.0671
tel	-10.0671
▁rare	-10.0679
▁operating	-10.0689
▁clean	-10.0696
55	-10.0697
▁Wild	-10.0698
called	-10.0703
▁image	-10.0703
▁Bob	-10.0704
▁professor	-10.0705
most	-10.0708
03	-10.072
ington	-10.0722
74	-10.0727
▁council	-10.0734
▁easy	-10.0744
▁Aisne	-10.0744
▁Jim	-10.0747
tain	-10.0747
▁majority	-10.075
▁earliest	-10.0754
▁500	-10.0757
-1	-10.0762
▁negative	-10.0763
▁baseball	-10.0764
▁provinces	-10.0767
▁Mexican	-10.0783
▁significant	-10.0783
▁Selena	-10.0783
▁Lincoln	-10.0792
▁twenty	-10.0792
▁protest	-10.0793
rid	-10.0795
▁2015,	-10.0797
▁Pop	-10.0799
▁drugs	-10.0801
stru	-10.0805
▁glass	-10.0805
▁Gulf	-10.0807
▁Para	-10.0811
▁electricity	-10.0817
▁Mid	-10.0818
69	-10.0819
yr	-10.0821
▁Mur	-10.0832
▁associated	-10.0837
▁Grammy	-10.0841
▁teeth	-10.0841
▁Turkey	-10.0842
▁Roger	-10.0843
ros	-10.0845
▁wave	-10.0849
▁Michigan	-10.0851
▁technique	-10.0851
59	-10.0853
kan	-10.0857
▁chain	-10.0859
▁device	-10.086
▁Alabama	-10.0861
▁variety	-10.0861
▁r	-10.0862
bury	-10.0863
▁substance	-10.087
▁status	-10.0873
▁mind	-10.0874
▁increased	-10.0875
phy	-10.0878
▁treat	-10.088
67	-10.088
▁Tar	-10.0883
▁longest	-10.0883
▁Gre	-10.089
▁difference	-10.0891
▁ski	-10.0896
▁lots	-10.09
▁arch	-10.0901
72	-10.0907
▁Bon	-10.0908
▁answer	-10.092
west	-10.0921
▁master	-10.093
▁construction	-10.0931
▁Tan	-10.0936
▁Space	-10.0942
▁singing	-10.0944
▁Bangladesh	-10.0949
▁correct	-10.0949
▁touch	-10.0949
▁react	-10.0956
▁results	-10.0956
▁Persian	-10.0965
▁Ann	-10.0966
▁Airlines	-10.0969
▁activity	-10.0969
▁claimed	-10.098
▁spend	-10.0981
▁candidate	-10.0988
▁planned	-10.0989
▁looking	-10.0991
ologist	-10.0992
▁cycle	-10.0994
▁limited	-10.0996
nar	-10.1001
▁ordered	-10.1011
▁soil	-10.1014
▁Vol	-10.1016
▁situation	-10.1018
▁consists	-10.1018
▁learned	-10.1018
mba	-10.1019
win	-10.1022
▁35	-10.1025
200	-10.1026
▁roll	-10.1031
she	-10.1031
▁31,	-10.1033
▁paintings	-10.1035
▁trial	-10.1038
▁protein	-10.1038
▁edge	-10.1047
▁Azerbaijan	-10.1048
▁1953	-10.105
▁grass	-10.1052
▁rise	-10.1057
▁annual	-10.1059
▁soft	-10.1076
▁sides	-10.1078
▁literature	-10.1088
▁FC	-10.1097
▁brown	-10.1098
vol	-10.1102
ada	-10.1105
78	-10.1106
yer	-10.1107
▁guard	-10.1108
▁thick	-10.1108
▁mammals	-10.1111
dale	-10.1112
▁liked	-10.1114
91	-10.1128
▁depression	-10.1128
▁Ce	-10.1131
▁question	-10.1137
▁Age	-10.1139
▁Ash	-10.1139
▁fossil	-10.1147
▁adopted	-10.115
Pas	-10.1159
▁0	-10.116
tim	-10.116
▁grown	-10.1161
▁bond	-10.1165
▁von	-10.1169
▁Arts	-10.117
▁2000,	-10.117
▁wrong	-10.1178
▁Master	-10.1179
▁graduated	-10.118
▁conductor	-10.1186
▁escape	-10.1186
bre	-10.1187
▁responsible	-10.1189
▁avoid	-10.1189
▁dangerous	-10.119
▁flu	-10.1195
Q	-10.1198
press	-10.1209
▁Sub	-10.1214
▁sequel	-10.1219
▁materials	-10.1222
▁ne	-10.1222
▁2004.	-10.1229
point	-10.1233
▁compared	-10.1234
▁Beach	-10.1235
▁theatre	-10.1235
▁officer	-10.1235
gal	-10.1236
79	-10.1239
▁micro	-10.124
▁sugar	-10.1241
▁belong	-10.1244
▁Count	-10.1251
▁accepted	-10.1252
cor	-10.1252
▁musicians	-10.1252
char	-10.1253
ban	-10.1258
mber	-10.1258
▁fans	-10.1263
wick	-10.1267
▁ve	-10.1269
▁Power	-10.1271
▁Wil	-10.1273
ify	-10.1276
▁Home	-10.1281
▁compounds	-10.1281
▁Storm	-10.1286
▁Vietnam	-10.129
▁Channel	-10.129
▁2003.	-10.1292
▁pet	-10.1292
▁Mil	-10.1295
▁separated	-10.13
68	-10.13
▁coming	-10.1303
▁user	-10.1308
▁Open	-10.1308
▁historian	-10.1311
▁Senator	-10.1311
▁hosted	-10.1311
▁Hindu	-10.1318
▁audience	-10.1321
▁Arch	-10.1323
▁1951	-10.1324
cept	-10.1326
▁price	-10.1327
ora	-10.1333
duct	-10.1333
▁height	-10.1334
▁consist	-10.134
▁(2	-10.1342
▁j	-10.1344
▁declared	-10.1344
37	-10.1346
▁Stu	-10.1347
31	-10.1348
log	-10.1348
▁tube	-10.1357
▁What	-10.1362
66	-10.1364
▁acted	-10.1371
▁thousands	-10.1372
▁whom	-10.1372
▁equation	-10.1372
▁com	-10.1375
▁mix	-10.1376
▁Ban	-10.1376
ama	-10.138
▁Oxford	-10.1382
▁debuted	-10.1383
▁managed	-10.1383
▁arms	-10.1387
▁Wall	-10.1389
▁infection	-10.139
▁bat	-10.1392
▁estimated	-10.1395
▁hu	-10.1399
▁evolution	-10.1403
▁wrestling	-10.1403
▁wants	-10.1404
sses	-10.1405
▁Several	-10.1413
▁stated	-10.1415
▁Radio	-10.1416
▁Pays	-10.1417
73	-10.1423
▁prey	-10.1423
▁ballet	-10.1428
47	-10.1433
▁Manchester	-10.1434
▁shop	-10.144
▁acts	-10.144
36	-10.1452
▁beautiful	-10.1455
▁particles	-10.1456
▁Cra	-10.1461
▁Ball	-10.1465
▁save	-10.1466
▁CD	-10.1467
▁web	-10.147
▁continue	-10.1472
gram	-10.1481
gor	-10.1482
63	-10.1483
▁Wal	-10.1484
▁1936	-10.1488
▁Chief	-10.1488
▁va	-10.1493
▁Apple	-10.1494
▁Arm	-10.1496
east	-10.15
▁Gen	-10.1506
▁Spring	-10.1508
law	-10.1508
▁illness	-10.1508
▁meters	-10.1509
▁auto	-10.1512
▁Bad	-10.1516
▁Bush	-10.1517
▁Alaska	-10.1517
33	-10.1519
06	-10.1522
42	-10.1525
ord	-10.1532
95	-10.1537
▁Bor	-10.1538
ability	-10.1544
▁Pra	-10.1546
▁32	-10.1559
▁Tro	-10.1562
▁baby	-10.1562
ika	-10.1563
pic	-10.1564
onic	-10.1565
▁van	-10.1566
ida	-10.1575
▁behavior	-10.158
▁bra	-10.1583
65	-10.159
▁universe	-10.1591
hara	-10.1598
eo	-10.1602
▁killing	-10.1604
▁activities	-10.1612
▁dynasty	-10.1612
▁Sil	-10.1614
▁Vice	-10.1615
▁Sin	-10.162
▁sure	-10.1621
▁Bern	-10.1626
▁alone	-10.1629
▁Philadelphia	-10.1633
▁temple	-10.1633
▁straight	-10.1633
▁2000.	-10.1641
▁circuit	-10.1643
gin	-10.1653
▁bear	-10.1653
71	-10.1655
▁risk	-10.1655
▁1943	-10.1656
▁partner	-10.1658
▁represented	-10.1663
▁pictures	-10.1675
▁Singapore	-10.1675
▁Vienna	-10.1675
rry	-10.1676
▁End	-10.1679
32	-10.168
▁pain	-10.1681
▁fictional	-10.1681
▁Marie	-10.1681
▁Bro	-10.1692
▁stick	-10.1699
▁snow	-10.1701
pin	-10.1701
▁creation	-10.1701
▁Rail	-10.1705
lay	-10.1706
▁recently	-10.1707
ming	-10.1713
▁n	-10.1713
room	-10.1715
▁hurt	-10.1719
▁zone	-10.1729
▁highly	-10.1736
▁lack	-10.1738
▁Punjab	-10.1739
▁seem	-10.1747
▁Kennedy	-10.175
▁politics	-10.175
▁comedian	-10.175
lap	-10.1752
chen	-10.1754
▁heard	-10.1759
▁opponent	-10.176
▁Network	-10.176
09	-10.1762
▁Of	-10.1777
▁priest	-10.1784
▁poll	-10.1787
▁Cape	-10.1788
▁follows	-10.1789
▁attended	-10.1789
▁prime	-10.1789
▁Order	-10.1791
▁address	-10.1793
▁northeast	-10.1796
▁failed	-10.1809
▁agree	-10.181
▁airline	-10.1824
nna	-10.1825
▁Toronto	-10.1825
▁row	-10.183
▁hall	-10.1837
based	-10.1837
NA	-10.1839
▁lasted	-10.1845
▁Gro	-10.1858
kov	-10.1863
▁loss	-10.1863
87	-10.1876
▁conflict	-10.1879
▁overall	-10.1882
▁Romania	-10.1887
▁accept	-10.1888
49	-10.189
nut	-10.1894
▁Down	-10.1898
▁Afghanistan	-10.1901
▁tend	-10.1912
▁renamed	-10.1914
▁require	-10.192
▁Argentina	-10.1922
▁Americans	-10.1922
08	-10.1923
ern	-10.1932
▁defined	-10.1933
▁desert	-10.1933
▁Thu	-10.1939
aging	-10.1944
ved	-10.1945
▁Common	-10.1947
▁Here	-10.1947
▁Len	-10.1951
Ar	-10.1952
▁content	-10.1955
▁door	-10.1955
▁press	-10.1957
▁Finland	-10.1959
▁useful	-10.196
ear	-10.1961
▁us	-10.1963
85	-10.1963
▁respect	-10.1967
▁hydrogen	-10.1967
▁Son	-10.1968
39	-10.197
▁path	-10.1974
▁phone	-10.1978
▁1938	-10.1979
▁Sar	-10.198
nor	-10.1983
▁lose	-10.1985
▁Prix	-10.1985
▁plate	-10.1985
▁sounds	-10.1986
▁architecture	-10.1989
cit	-10.1993
▁claim	-10.1994
dge	-10.2001
▁Mountains	-10.2008
▁prize	-10.2011
▁atoms	-10.2013
▁counties	-10.2013
▁shoot	-10.2015
▁parties	-10.2019
▁association	-10.2021
▁Railway	-10.2022
ites	-10.2024
▁fell	-10.2026
▁reform	-10.2026
phe	-10.2026
water	-10.2028
▁Band	-10.2029
▁Belgium	-10.2032
▁remain	-10.2035
▁Max	-10.2035
▁arrived	-10.2035
▁Calvados	-10.2043
▁Usually	-10.2043
▁density	-10.2043
tit	-10.2045
62	-10.2045
▁borders	-10.2046
▁faster	-10.2049
▁Anti	-10.2051
dar	-10.2052
▁champion	-10.2066
▁Way	-10.2072
grad	-10.2072
▁Shar	-10.2073
▁Minnesota	-10.2076
cur	-10.2077
▁milk	-10.2077
▁weigh	-10.208
▁holds	-10.2082
▁gained	-10.2087
▁Modern	-10.2087
▁choose	-10.2087
▁chance	-10.2088
▁poly	-10.2089
▁founder	-10.2089
▁presidential	-10.2091
▁Constitution	-10.2098
▁Cambridge	-10.2098
▁Ana	-10.21
57	-10.2103
▁presented	-10.2108
▁Dun	-10.2109
uri	-10.2109
▁Princess	-10.2109
▁1933	-10.2111
58	-10.2116
▁Tur	-10.2117
▁Holy	-10.2119
▁attention	-10.212
▁anything	-10.2121
▁notable	-10.2128
▁empire	-10.2131
▁Sand	-10.2132
▁trip	-10.2132
▁arm	-10.2133
▁examples	-10.2133
▁tries	-10.2133
▁classical	-10.2134
38	-10.2139
▁pin	-10.214
▁sick	-10.2141
▁thin	-10.2141
▁compound	-10.2141
aki	-10.2149
▁Moon	-10.2149
▁launched	-10.2153
enberg	-10.2157
▁meat	-10.2158
▁mayor	-10.2165
▁1934	-10.2166
▁everyone	-10.2174
▁Kh	-10.2174
▁Moscow	-10.2176
▁industrial	-10.2176
vil	-10.2176
ress	-10.218
hn	-10.2183
▁Camp	-10.2184
▁painter	-10.2185
▁composers	-10.2187
▁suburb	-10.2187
rel	-10.219
▁items	-10.2191
▁southwestern	-10.22
▁sixth	-10.2209
▁morning	-10.2209
▁winds	-10.2209
▁jobs	-10.2228
▁mental	-10.2233
▁onto	-10.2234
▁flowers	-10.2237
43	-10.2238
▁competed	-10.2242
▁Premier	-10.2243
▁op	-10.2244
ois	-10.2246
▁ga	-10.2253
▁alphabet	-10.2254
▁universities	-10.2254
▁lawyer	-10.2256
▁2003,	-10.2261
▁restaurant	-10.2265
▁DVD	-10.2265
hand	-10.2272
heim	-10.2275
▁2002.	-10.228
ished	-10.2282
morph	-10.2286
TV	-10.2287
▁Picardie	-10.2288
▁racing	-10.2288
▁knowledge	-10.2288
▁Once	-10.229
▁link	-10.2291
▁Ag	-10.2293
tric	-10.2294
▁users	-10.2297
▁fashion	-10.2299
▁1928	-10.2301
▁mathematics	-10.231
▁begins	-10.2312
▁mine	-10.2315
craft	-10.232
▁Stephen	-10.2322
▁interview	-10.2322
▁Var	-10.2328
▁Fla	-10.2329
ae	-10.2332
▁Philip	-10.2332
▁churches	-10.2335
▁peak	-10.2342
late	-10.2342
cat	-10.2346
▁detect	-10.2348
lot	-10.2351
osaurus	-10.2353
▁Hor	-10.2355
34	-10.2355
▁Melbourne	-10.2356
mark	-10.2357
rr	-10.2357
key	-10.2359
▁Cap	-10.236
▁constant	-10.2367
▁particularly	-10.2367
sey	-10.2368
▁engines	-10.2368
▁Fair	-10.2369
▁Dis	-10.2372
▁issues	-10.2391
▁electrons	-10.2393
▁illegal	-10.2401
▁Louisiana	-10.2401
▁pilot	-10.2402
In	-10.2403
▁mineral	-10.2404
rey	-10.2405
▁mini	-10.2405
nny	-10.2406
set	-10.2408
La	-10.2409
▁Hawaii	-10.2413
▁Czech	-10.2413
▁Commission	-10.2413
▁drop	-10.2415
▁finger	-10.2415
▁Hollywood	-10.2424
▁Ross	-10.2425
▁Gri	-10.2427
▁lung	-10.2428
▁Mat	-10.2433
▁Native	-10.2434
▁leg	-10.2435
nning	-10.2436
▁agreement	-10.2441
▁Fred	-10.2445
▁Cathedral	-10.2447
▁Microsoft	-10.2447
▁Family	-10.2447
▁muscle	-10.2447
▁Castle	-10.2449
aya	-10.2454
▁gene	-10.2456
▁combined	-10.2457
▁volume	-10.2458
▁1922	-10.2461
▁Armenian	-10.2463
vy	-10.2463
rist	-10.2465
▁radiation	-10.247
▁feeling	-10.2472
▁Wilson	-10.2474
▁arrested	-10.2479
▁molecules	-10.248
▁philosophy	-10.2481
▁hotel	-10.2492
▁interested	-10.2492
▁giant	-10.2493
▁1918	-10.2497
▁Mill	-10.2497
▁stream	-10.2499
▁contact	-10.2504
▁Islamic	-10.2505
hl	-10.2505
▁Anna	-10.2506
▁Francis	-10.2514
ulation	-10.2515
hood	-10.2519
▁unknown	-10.2522
gro	-10.2523
▁Ray	-10.2524
▁fla	-10.2526
41	-10.2529
▁Kat	-10.2534
▁bio	-10.2534
▁journalist	-10.254
▁1929	-10.2541
▁Gor	-10.2546
▁Walt	-10.2551
▁Instead	-10.2557
▁ranked	-10.2558
▁gods	-10.256
▁circle	-10.2562
▁guest	-10.2562
▁physics	-10.2563
cial	-10.2573
▁mythology	-10.2575
▁Basse	-10.2576
▁note	-10.2578
rated	-10.258
▁alternative	-10.2585
▁Iraq	-10.2585
▁1926	-10.2588
▁45	-10.2592
▁syn	-10.2595
pped	-10.2597
▁provided	-10.2597
▁frog	-10.2599
▁chi	-10.261
▁easier	-10.262
ree	-10.2632
46	-10.2637
▁gain	-10.2639
▁required	-10.2645
vor	-10.2654
▁wheel	-10.2656
▁report	-10.266
with	-10.2661
▁Walter	-10.2671
▁Region	-10.2673
▁girls	-10.268
▁Palace	-10.2682
▁snake	-10.2691
▁steel	-10.2691
▁metres	-10.2695
▁target	-10.2702
▁eaten	-10.2705
▁card	-10.271
▁approach	-10.2714
▁hands	-10.2715
▁Qui	-10.2716
tta	-10.272
▁painted	-10.2721
SA	-10.2722
fic	-10.2728
▁cyclone	-10.2728
▁rid	-10.2731
▁slowly	-10.2738
see	-10.275
▁Monte	-10.2753
▁bill	-10.2754
▁Sur	-10.276
▁earthquake	-10.2761
▁chose	-10.2762
are	-10.2772
▁Between	-10.2773
▁Dream	-10.2785
▁Jan	-10.2785
▁concern	-10.2797
▁settled	-10.2804
▁Clo	-10.2806
▁mis	-10.2808
chan	-10.2811
▁aired	-10.2812
▁Sim	-10.2814
02	-10.2821
gna	-10.2824
▁headquarters	-10.2833
▁southeast	-10.2835
band	-10.2847
▁Sol	-10.2849
▁colony	-10.285
▁decade	-10.2851
▁organized	-10.2855
▁solution	-10.2856
▁demand	-10.2857
▁Work	-10.2858
rian	-10.2863
▁hip	-10.2865
▁connection	-10.2865
▁pun	-10.2867
▁Ker	-10.2869
▁felt	-10.2869
▁treated	-10.2875
▁challenge	-10.288
▁else	-10.2881
▁1925	-10.2884
-20	-10.2886
▁affected	-10.2891
▁Stadium	-10.2893
▁classification	-10.2893
▁operation	-10.2895
▁Cy	-10.2895
vation	-10.2898
▁tower	-10.2898
bil	-10.2903
▁Web	-10.2904
▁knew	-10.2905
▁symptoms	-10.2908
▁Inc	-10.2909
▁Mike	-10.2909
▁Area	-10.2912
▁victory	-10.2916
▁bl	-10.2918
▁hop	-10.2918
▁colors	-10.2921
▁Missouri	-10.2928
▁sons	-10.2929
▁Die	-10.2929
▁compete	-10.2931
▁represent	-10.2932
▁moves	-10.2932
mel	-10.294
▁ethnic	-10.294
dr	-10.2941
dri	-10.2952
▁effort	-10.2952
▁Point	-10.2953
▁looked	-10.2955
▁1927	-10.2955
▁replace	-10.2955
rad	-10.2955
▁Christianity	-10.2963
▁bands	-10.2964
▁Conference	-10.2965
▁forward	-10.2966
▁unique	-10.2966
▁damaged	-10.2974
▁breed	-10.2974
▁Norway	-10.2979
lip	-10.2982
▁sources	-10.2983
▁Indiana	-10.2983
▁Muslims	-10.2989
▁races	-10.2989
▁Brother	-10.299
lio	-10.299
gle	-10.2991
88	-10.2992
▁Hong	-10.2995
▁forests	-10.2996
hop	-10.2999
▁Indonesia	-10.3001
▁editor	-10.3001
pot	-10.3001
rick	-10.3006
ged	-10.3009
nal	-10.3011
▁Assembly	-10.3013
▁Gironde	-10.3013
ush	-10.3014
▁brothers	-10.3014
vine	-10.3015
▁Upper	-10.3023
▁Marine	-10.3025
▁threat	-10.3025
52	-10.3026
▁dress	-10.3027
▁Clark	-10.3028
▁engineer	-10.3032
▁mode	-10.3035
▁Lawrence	-10.3037
▁Sports	-10.3042
▁survive	-10.305
▁apart	-10.3061
▁1937	-10.3064
▁Mus	-10.3067
such	-10.3068
▁response	-10.3074
▁everything	-10.3074
gate	-10.3077
nge	-10.3079
▁methods	-10.308
▁Ky	-10.3085
▁Hay	-10.3087
▁burn	-10.3088
▁script	-10.3089
▁twin	-10.3103
▁Kal	-10.3109
▁revolution	-10.311
pir	-10.3111
▁Boeing	-10.3111
64	-10.3112
ison	-10.3112
▁engineering	-10.3113
▁crew	-10.3115
▁hundred	-10.3118
▁pan	-10.3118
▁conduct	-10.312
▁sequence	-10.3123
gn	-10.3125
▁wing	-10.3128
▁Thi	-10.313
bul	-10.3132
▁Heritage	-10.3135
▁suffered	-10.3138
▁1935	-10.315
▁plans	-10.3156
▁300	-10.3157
▁serving	-10.317
▁Garden	-10.3176
▁electrical	-10.3177
▁Kashmir	-10.3184
▁1924	-10.3187
▁IV	-10.3188
▁Cuba	-10.3189
aceae	-10.3191
▁rap	-10.3195
▁visited	-10.3198
zer	-10.321
▁females	-10.3214
▁plain	-10.3216
▁slightly	-10.3221
▁violin	-10.3221
▁climb	-10.3221
▁Field	-10.3221
▁Main	-10.3222
▁motion	-10.3223
▁programme	-10.3227
▁dialect	-10.3234
▁Member	-10.3237
▁issue	-10.3242
▁previously	-10.3244
▁Tony	-10.3245
▁Mediterranean	-10.3246
vision	-10.3249
▁begin	-10.3252
▁Rod	-10.3258
▁Steve	-10.3258
▁Taylor	-10.3258
▁Well	-10.3266
▁fur	-10.3267
pan	-10.3269
ather	-10.3269
HL	-10.327
▁pitch	-10.327
ware	-10.327
▁permanent	-10.3271
via	-10.3277
ency	-10.3278
▁Mississippi	-10.3283
ule	-10.3284
▁percent	-10.3284
▁maintain	-10.3288
▁Em	-10.3289
▁reference	-10.329
▁Andr	-10.3297
▁rating	-10.3297
▁Dark	-10.3299
▁Nick	-10.3302
▁2015.	-10.3304
Ma	-10.3304
▁guitarist	-10.3306
▁organisms	-10.3308
▁statue	-10.3309
▁choice	-10.3309
▁1923	-10.3311
▁Syria	-10.3313
▁tribe	-10.3314
▁rocks	-10.3317
▁notes	-10.3318
▁executive	-10.3321
▁therefore	-10.3321
▁tribes	-10.3332
▁mono	-10.3335
61	-10.3337
▁extremely	-10.3344
▁fields	-10.3346
▁genre	-10.3346
clo	-10.3348
▁Rh	-10.3351
▁clothing	-10.3351
▁Highway	-10.3351
▁cent	-10.3353
tting	-10.3361
rupt	-10.3365
igh	-10.3366
▁si	-10.3366
▁definition	-10.3371
wer	-10.3379
▁Pl	-10.338
▁scholar	-10.3382
lem	-10.3387
awa	-10.34
▁Heart	-10.3408
▁Caribbean	-10.3409
▁Pyrnes	-10.3409
▁nomination	-10.3412
cca	-10.3415
▁closely	-10.3417
▁1900	-10.3418
dle	-10.3422
ides	-10.3425
▁hour	-10.3426
▁hat	-10.3431
▁communication	-10.3434
▁distribution	-10.3434
▁Detroit	-10.3434
▁Bol	-10.3441
▁online	-10.3446
▁Knight	-10.3447
▁Jun	-10.3449
▁App	-10.3449
▁(17	-10.3452
▁goddess	-10.3459
urge	-10.346
▁Ronald	-10.346
▁Est	-10.3462
py	-10.3463
▁64	-10.3471
▁1919	-10.3478
nel	-10.348
▁Who	-10.3483
▁Montreal	-10.3485
▁union	-10.3492
▁typically	-10.3497
▁Connecticut	-10.3497
▁domestic	-10.3497
▁Hitler	-10.3498
▁Unlike	-10.35
graph	-10.3501
81	-10.3507
tru	-10.3514
una	-10.3516
▁Philippines	-10.3517
▁Forest	-10.3518
type	-10.3519
▁occurs	-10.3524
▁Honor	-10.3525
▁teach	-10.353
▁walls	-10.3533
mble	-10.3535
▁policy	-10.3536
▁Spe	-10.3536
ima	-10.3536
▁parliament	-10.3538
▁Ur	-10.354
rea	-10.3548
meter	-10.3552
pre	-10.3554
list	-10.356
▁Pass	-10.3563
ridge	-10.3565
▁remaining	-10.3567
▁surrounded	-10.357
mmer	-10.3574
stan	-10.3579
ret	-10.3584
▁twelve	-10.3587
▁greater	-10.3591
▁Seven	-10.3596
▁Ring	-10.3599
▁Portuguese	-10.36
▁Protestant	-10.36
▁Wisconsin	-10.36
ime	-10.3601
▁Helen	-10.3602
▁dogs	-10.3603
ava	-10.3609
nz	-10.3611
▁traffic	-10.3613
▁proposed	-10.3614
▁folk	-10.3614
osis	-10.3615
▁wings	-10.3621
gui	-10.3625
▁narrow	-10.3626
▁1932	-10.3628
▁photo	-10.3631
▁Hart	-10.3633
▁quality	-10.3634
▁fear	-10.3636
▁powers	-10.3637
▁worship	-10.3638
▁indicate	-10.3639
▁passengers	-10.3642
▁suicide	-10.3652
▁article	-10.3652
▁evil	-10.3654
▁males	-10.3655
eng	-10.3658
▁Earl	-10.366
▁Six	-10.3661
tile	-10.3662
but	-10.3662
▁Peninsula	-10.3664
▁rival	-10.3664
▁predict	-10.3665
aka	-10.367
▁principle	-10.3677
ori	-10.3682
cht	-10.3685
▁Douglas	-10.369
▁philosopher	-10.369
▁adults	-10.3691
▁Death	-10.3697
cm	-10.3697
▁sentence	-10.3698
bur	-10.3698
▁cloud	-10.3703
▁digital	-10.3703
▁oxide	-10.3703
▁Dor	-10.3706
▁lies	-10.3707
▁Raw	-10.3714
▁Research	-10.3716
▁criminal	-10.3716
▁Lewis	-10.3717
▁severe	-10.3717
▁75	-10.3719
long	-10.3722
▁Mass	-10.3725
▁Chart	-10.3725
▁Ste	-10.3726
▁throne	-10.3731
▁solar	-10.3731
▁actions	-10.3734
ume	-10.3736
▁suggested	-10.3736
▁Orchestra	-10.3742
▁changing	-10.3742
▁sky	-10.375
▁sites	-10.3755
▁pot	-10.3755
▁activist	-10.3755
▁properties	-10.3755
▁Denmark	-10.3756
▁lay	-10.3757
▁sample	-10.3768
mus	-10.3769
▁nickname	-10.3771
▁magic	-10.3772
▁describes	-10.3773
▁Director	-10.3774
▁combination	-10.3781
▁equipment	-10.3781
ense	-10.3783
▁1917	-10.3785
▁tra	-10.3786
state	-10.3794
▁Imperial	-10.3795
▁captain	-10.3795
lim	-10.3796
▁par	-10.3797
▁freedom	-10.3797
▁Cri	-10.3799
▁Kha	-10.3801
▁champions	-10.3805
▁breath	-10.3808
moto	-10.3808
▁Post	-10.3809
▁Dam	-10.3809
iga	-10.3813
▁monarch	-10.3814
▁tools	-10.3817
▁fan	-10.3821
▁recover	-10.3825
▁attend	-10.3828
▁Miss	-10.383
▁Ac	-10.383
cro	-10.3831
▁platform	-10.3834
▁queen	-10.3835
och	-10.3836
▁unusual	-10.3843
▁staff	-10.3847
▁articles	-10.3848
▁switch	-10.3848
▁dancer	-10.3853
▁Light	-10.3856
▁habitat	-10.3857
▁exchange	-10.386
ote	-10.3862
▁dam	-10.3865
▁vocal	-10.3867
▁Hamilton	-10.3874
▁1999.	-10.3879
▁Note	-10.3883
▁Prefecture	-10.3887
▁phrase	-10.3887
▁inspired	-10.39
▁Kl	-10.39
▁selling	-10.3901
▁Str	-10.3905
▁Mah	-10.3906
Ba	-10.3911
▁(3	-10.3912
▁supposed	-10.3913
▁Special	-10.3914
▁Ara	-10.3916
▁shared	-10.3918
▁Motor	-10.3922
▁1931	-10.3929
▁learning	-10.3936
▁throw	-10.3938
▁promoted	-10.3941
▁household	-10.3941
itt	-10.3947
▁Carter	-10.3949
▁Play	-10.3949
▁fully	-10.395
▁Il	-10.3954
▁Steven	-10.3959
Rhne	-10.3959
▁sang	-10.396
▁rob	-10.3964
▁Dynasty	-10.3967
▁resigned	-10.3967
▁Rick	-10.3967
▁Hawk	-10.3968
ement	-10.3968
▁Mari	-10.3971
ock	-10.3977
▁am	-10.3979
▁holiday	-10.398
tant	-10.3981
▁sales	-10.3984
▁neck	-10.3986
▁survived	-10.3992
▁refused	-10.3995
▁seeds	-10.3997
▁Examples	-10.4
▁clothes	-10.4
ele	-10.4005
▁Sunday	-10.4009
▁window	-10.4022
▁waves	-10.4024
▁Sel	-10.4024
▁concerts	-10.403
▁hunt	-10.4038
▁expected	-10.404
▁Phil	-10.404
▁printed	-10.4045
uck	-10.405
▁Taiwan	-10.406
▁stock	-10.4065
▁nest	-10.4068
▁counter	-10.4069
▁Tele	-10.407
▁surrounding	-10.4071
RA	-10.4071
▁jazz	-10.4074
▁lock	-10.4076
▁;	-10.4082
cell	-10.4086
▁Muhammad	-10.4087
▁Napoleon	-10.4087
▁invasion	-10.4087
▁Sky	-10.4088
uction	-10.4094
▁Matt	-10.4097
▁Aboriginal	-10.4101
▁supply	-10.4101
ably	-10.4101
▁1921	-10.4104
▁Tower	-10.4105
▁approximately	-10.4111
▁trouble	-10.4114
▁wire	-10.4117
▁formation	-10.4119
▁Kid	-10.4123
▁classes	-10.4127
▁Ven	-10.4128
▁ancestor	-10.4128
▁reduce	-10.4132
▁statement	-10.4135
▁Key	-10.4136
▁cathedral	-10.4141
▁writers	-10.4143
▁fu	-10.4145
ister	-10.4146
▁marry	-10.4146
ito	-10.4147
▁Ever	-10.4154
down	-10.4154
▁Arkansas	-10.4155
▁listen	-10.4158
48	-10.4159
▁reflect	-10.4169
ira	-10.4171
sim	-10.4177
▁continent	-10.4178
▁atom	-10.4179
▁colon	-10.4179
▁library	-10.4182
▁Census	-10.4182
ien	-10.4184
MA	-10.4185
▁fine	-10.4186
▁Kra	-10.4188
Ro	-10.4191
▁Alex	-10.4195
▁Wikipedia	-10.4196
▁Barb	-10.4196
▁Simon	-10.4197
▁personality	-10.4202
▁broken	-10.4209
Normandie	-10.421
▁elections	-10.4212
▁Whit	-10.4215
▁extinct	-10.4216
▁/	-10.4219
▁Christopher	-10.4223
▁critic	-10.4224
rine	-10.4231
▁distinct	-10.4234
▁Iron	-10.4235
▁offered	-10.4241
▁chemistry	-10.4244
▁Player	-10.4248
▁Quebec	-10.4251
▁Justice	-10.4251
▁characteristic	-10.4254
▁suit	-10.426
▁measured	-10.4266
▁thus	-10.4267
mond	-10.4267
▁suggest	-10.4269
dan	-10.4271
lov	-10.4273
▁FIFA	-10.4278
▁victim	-10.4278
▁showing	-10.428
yard	-10.4285
▁Pap	-10.4286
▁strike	-10.4292
▁Captain	-10.4293
▁guns	-10.4297
▁Nar	-10.4301
▁prefecture	-10.4302
gene	-10.4304
▁security	-10.4306
▁Adams	-10.4306
book	-10.4306
▁Theatre	-10.4307
▁functions	-10.4313
mbi	-10.4314
▁Turkish	-10.4315
▁2002,	-10.4318
FC	-10.432
▁protection	-10.4322
▁effective	-10.4327
▁Beau	-10.4329
▁fossils	-10.4335
▁drum	-10.4335
▁mentioned	-10.4339
pon	-10.4341
▁rod	-10.4344
▁cook	-10.4346
▁Juan	-10.435
▁Ottoman	-10.435
▁wine	-10.435
print	-10.4357
▁Federation	-10.4361
▁crown	-10.4362
arm	-10.4366
▁Fur	-10.4373
▁Tennessee	-10.4375
▁camera	-10.4386
▁Corporation	-10.4389
▁financial	-10.4389
▁Album	-10.4389
▁Christians	-10.4396
▁applied	-10.4403
▁Gene	-10.4407
▁400	-10.4408
▁confirmed	-10.4412
▁Fer	-10.4413
tron	-10.4413
Atlantiques	-10.4417
▁starring	-10.442
▁electron	-10.4426
▁pla	-10.4428
▁Temple	-10.443
▁Alfred	-10.4431
tti	-10.444
▁coat	-10.4442
▁spoke	-10.4443
▁Pin	-10.4445
ook	-10.4446
▁Zo	-10.4448
▁Brad	-10.4456
ivity	-10.4456
▁causing	-10.4459
▁Hal	-10.4465
eau	-10.4466
CA	-10.4467
▁whi	-10.4469
▁Colorado	-10.4473
▁Square	-10.4473
bed	-10.4477
eon	-10.4483
▁column	-10.4487
▁finds	-10.4494
An	-10.4496
▁tea	-10.4498
▁architect	-10.45
where	-10.45
▁dropped	-10.4502
itch	-10.4508
▁65	-10.4508
▁cre	-10.4515
▁Frederick	-10.4515
▁communities	-10.4515
▁thousand	-10.4515
place	-10.452
▁sum	-10.4526
▁creating	-10.453
▁cho	-10.4534
run	-10.4542
▁scar	-10.4547
▁lyrics	-10.4551
gie	-10.4551
▁Opera	-10.4553
▁conducted	-10.4555
▁discovery	-10.4559
own	-10.456
▁sort	-10.4562
▁Jen	-10.4568
▁Chile	-10.4571
▁global	-10.4572
▁palace	-10.4572
▁Station	-10.4572
▁turns	-10.4573
ophi	-10.4575
▁Fl	-10.4583
iva	-10.4588
▁Lou	-10.4589
rb	-10.4592
▁income	-10.4593
▁Fr	-10.4602
hin	-10.461
▁Arabic	-10.4614
▁expensive	-10.4614
▁defence	-10.4614
▁programming	-10.4616
▁sit	-10.4624
▁stands	-10.4627
▁protected	-10.4628
▁behaviour	-10.4628
▁plastic	-10.4628
▁dispute	-10.463
▁Robinson	-10.463
▁ear	-10.4639
▁legend	-10.4641
▁Zi	-10.4642
▁fishing	-10.4647
▁Pho	-10.465
burn	-10.4654
▁provides	-10.4655
▁Despite	-10.4657
▁potential	-10.4657
▁background	-10.4659
▁tank	-10.466
rant	-10.4662
▁altitude	-10.4672
▁basis	-10.4674
▁Ages	-10.468
▁Euro	-10.4682
wal	-10.4683
▁argument	-10.4686
pat	-10.4688
▁Rhine	-10.4689
▁Karl	-10.469
▁hundreds	-10.4691
▁charts	-10.4697
▁tissue	-10.47
aga	-10.4702
▁songwriter	-10.4703
▁Sri	-10.4705
▁capture	-10.4706
▁Office	-10.4706
▁performing	-10.4707
een	-10.4711
▁slaves	-10.4711
▁relatively	-10.4711
style	-10.4711
▁perfect	-10.4715
▁check	-10.4718
app	-10.4718
▁arts	-10.4724
▁chess	-10.4724
▁Boo	-10.4726
▁Last	-10.4728
▁virus	-10.4729
▁Neu	-10.4731
Mar	-10.4741
▁occurred	-10.4744
▁Lower	-10.4746
▁differences	-10.4757
zar	-10.4757
▁Head	-10.4759
▁wet	-10.4766
▁earn	-10.4767
bol	-10.4774
▁Berg	-10.4774
▁translated	-10.4779
izing	-10.4786
▁gather	-10.479
▁flying	-10.479
▁fin	-10.4793
▁reserve	-10.4801
▁caught	-10.4802
▁Wind	-10.4803
▁task	-10.4805
▁poetry	-10.4809
ami	-10.4809
▁angle	-10.4812
▁Hospital	-10.4815
▁institution	-10.4815
▁happy	-10.4815
▁Thr	-10.4816
▁Kin	-10.4822
▁theater	-10.4825
▁dioxide	-10.483
▁Puerto	-10.483
▁draw	-10.4833
▁Plan	-10.4836
▁Glen	-10.484
▁nothing	-10.4847
▁poem	-10.4848
▁rat	-10.4852
▁analysis	-10.4859
▁History	-10.4863
▁150	-10.4868
▁paint	-10.4869
▁graphic	-10.4873
▁Commonwealth	-10.4874
▁console	-10.4874
▁safety	-10.4878
ozo	-10.488
▁42	-10.4881
▁Early	-10.4882
▁Social	-10.4884
▁dates	-10.4888
▁hang	-10.489
▁exactly	-10.49
▁calls	-10.49
▁crystal	-10.4903
▁instruction	-10.4903
▁Beatles	-10.4904
▁stores	-10.4906
▁occupied	-10.4911
▁Stra	-10.4913
▁standing	-10.4921
▁bones	-10.4925
ographic	-10.4925
▁magnetic	-10.4929
nan	-10.493
cade	-10.4931
▁Professor	-10.4932
▁Back	-10.4932
ddle	-10.4936
▁Mol	-10.4938
▁Soon	-10.4939
▁Lau	-10.494
▁Alice	-10.4949
▁Yama	-10.4951
▁herself	-10.4954
▁Arizona	-10.4962
▁Adam	-10.4962
IA	-10.4963
▁Emmy	-10.4963
▁Ji	-10.4964
▁34	-10.4979
▁Gun	-10.4981
▁devices	-10.4992
▁Clinton	-10.5006
▁finding	-10.5009
▁How	-10.501
llo	-10.5015
▁smallest	-10.5027
▁remove	-10.5027
-2	-10.5031
▁eating	-10.5032
▁Public	-10.5036
▁adventure	-10.5036
▁enemies	-10.5036
▁Ice	-10.5038
▁Mountain	-10.5039
ounce	-10.5039
phone	-10.5039
▁2021	-10.5041
▁Allen	-10.5044
▁improve	-10.5045
▁Convention	-10.5051
▁solve	-10.5051
▁zoo	-10.5058
▁beliefs	-10.506
▁composition	-10.5066
▁Foundation	-10.5067
▁citizens	-10.5073
▁operations	-10.508
▁gang	-10.5083
2,000	-10.5084
▁disk	-10.5086
▁36	-10.5088
▁campus	-10.5089
▁nations	-10.5089
▁organic	-10.5091
itor	-10.5093
▁Sen	-10.5096
▁medium	-10.5097
▁Creek	-10.5097
▁pri	-10.5099
▁titles	-10.51
▁immediately	-10.51
▁Times	-10.5101
);	-10.5101
▁1997.	-10.5101
▁cave	-10.5102
▁machines	-10.5103
▁Baltimore	-10.511
▁seats	-10.5114
cast	-10.5118
▁ju	-10.5119
54	-10.5122
▁Supreme	-10.5125
▁dollar	-10.5125
▁sweet	-10.5125
▁orange	-10.5128
▁Palm	-10.5134
▁wait	-10.5135
▁horn	-10.5136
▁Pal	-10.5139
▁films	-10.5139
▁stroke	-10.514
OS	-10.5141
▁Cer	-10.5141
100	-10.5143
▁operate	-10.5146
▁atmosphere	-10.5155
▁Mars	-10.5159
mir	-10.5162
82	-10.5166
▁Pr	-10.5168
▁moment	-10.5168
▁degrees	-10.517
▁ceremony	-10.517
▁Cook	-10.5173
▁Swiss	-10.5185
▁Ren	-10.5187
▁regional	-10.5187
nu	-10.5188
▁33	-10.5188
▁filled	-10.5188
▁Mir	-10.5198
▁Sl	-10.5199
▁Zu	-10.52
▁Portugal	-10.52
▁administration	-10.52
omi	-10.5203
ulf	-10.5207
▁uncle	-10.5207
▁spirit	-10.5215
▁Leon	-10.5215
▁Jerusalem	-10.5215
▁boys	-10.5222
▁noble	-10.5225
▁Paralympics	-10.523
astic	-10.5231
▁cartoon	-10.5231
vid	-10.5238
▁format	-10.5238
50,000	-10.5246
▁Police	-10.5247
▁hear	-10.5248
▁Hills	-10.525
vit	-10.5251
▁hits	-10.5257
▁voted	-10.5258
▁alive	-10.5259
▁numerous	-10.5261
▁conference	-10.5263
▁NBA	-10.5264
▁Representatives	-10.5264
▁Bach	-10.5266
bus	-10.527
▁Rob	-10.5273
▁roads	-10.5275
▁Treaty	-10.5276
▁Cle	-10.5277
▁existed	-10.5277
▁sat	-10.5278
▁Real	-10.5283
▁attract	-10.5285
▁vehicle	-10.5287
▁defense	-10.5291
▁talent	-10.5292
mn	-10.5294
▁grave	-10.5295
gy	-10.5297
▁Cop	-10.5302
▁Burn	-10.5305
▁setting	-10.5306
▁Eli	-10.5307
▁angry	-10.5308
▁cards	-10.5309
▁tune	-10.5311
▁Peru	-10.5313
▁ph	-10.5315
from	-10.5315
▁Dol	-10.5316
▁Gr	-10.5316
▁joint	-10.5322
▁Dominican	-10.5325
▁Hans	-10.5328
▁Fun	-10.5331
ado	-10.5333
▁thinking	-10.5334
▁advantage	-10.5337
▁Saturn	-10.5337
▁didn	-10.5344
ional	-10.5351
▁bed	-10.5354
▁ending	-10.5354
▁Short	-10.5355
▁stronger	-10.5356
▁Country	-10.5358
▁fixed	-10.5363
▁values	-10.5364
bor	-10.5365
TA	-10.5369
▁Jose	-10.5372
wo	-10.5374
▁historic	-10.5378
▁issued	-10.5383
▁Manhattan	-10.5383
▁Metropolitan	-10.5383
▁violence	-10.5383
▁Globe	-10.5385
▁Your	-10.5387
▁selection	-10.5388
▁1912	-10.5388
cco	-10.5389
▁fired	-10.539
▁Pet	-10.5391
▁anyone	-10.5391
▁drawing	-10.5393
▁Guard	-10.5394
▁PlayStation	-10.5399
▁vehicles	-10.5403
▁1914	-10.5403
▁officers	-10.5405
▁Taka	-10.5409
44	-10.541
▁punk	-10.541
▁Orthodox	-10.5414
▁category	-10.5414
▁guide	-10.5414
▁impact	-10.5415
▁Pea	-10.5417
right	-10.542
May	-10.5428
une	-10.5429
▁component	-10.5429
▁eleven	-10.5429
▁Donald	-10.543
▁whale	-10.543
▁Cold	-10.5442
urg	-10.5445
▁figures	-10.5445
▁Davis	-10.5451
▁Swa	-10.5453
maker	-10.5461
▁Pala	-10.5462
rom	-10.5466
cio	-10.5471
▁pole	-10.5474
▁lakes	-10.5475
▁Idaho	-10.5476
▁Samuel	-10.5476
▁reading	-10.5478
bia	-10.5482
▁electro	-10.5483
▁Final	-10.549
motion	-10.549
▁outer	-10.5491
▁poison	-10.5491
▁Lind	-10.5491
▁Matthew	-10.5491
▁Prussia	-10.5491
▁daily	-10.5491
▁aim	-10.5493
▁Five	-10.5493
bach	-10.5493
▁marine	-10.5498
tory	-10.5498
ashi	-10.5502
▁gay	-10.5504
feld	-10.5507
▁NFL	-10.5509
▁broad	-10.551
▁exception	-10.5515
▁Anton	-10.5516
▁Brian	-10.5517
▁youngest	-10.5521
▁diseases	-10.5521
▁succeeded	-10.5522
▁Memorial	-10.5522
▁satellite	-10.5522
▁asteroid	-10.5523
▁Baseball	-10.5523
▁sharp	-10.5523
▁chamber	-10.5523
▁faith	-10.5523
▁actual	-10.5524
▁Rangers	-10.5524
▁Ain	-10.5525
bird	-10.5527
▁myth	-10.5527
▁Silver	-10.5528
▁falls	-10.5529
ati	-10.5532
lat	-10.5538
▁vegetable	-10.5538
▁Jordan	-10.5538
▁descent	-10.5539
▁Darwin	-10.5539
▁Shin	-10.5539
▁abuse	-10.554
▁pack	-10.5542
▁diet	-10.5548
▁movements	-10.5549
▁egg	-10.5551
▁novels	-10.5552
▁critical	-10.5553
▁Charlotte	-10.5554
▁injured	-10.5554
▁lit	-10.5555
51	-10.5557
cci	-10.5558
▁51	-10.5562
ature	-10.5563
hold	-10.5565
tors	-10.5573
▁den	-10.5575
▁Gabriel	-10.5585
▁rescue	-10.5585
BC	-10.5586
▁organisation	-10.5586
▁belief	-10.5591
▁shooting	-10.5593
▁Bou	-10.5594
▁authority	-10.5596
▁Education	-10.5601
▁formal	-10.5607
▁Wei	-10.5611
▁reduced	-10.5612
aur	-10.5614
▁Rub	-10.5615
▁spa	-10.5618
pal	-10.5621
ali	-10.5624
count	-10.5627
▁(16	-10.5636
chin	-10.5643
▁UEFA	-10.5648
▁Television	-10.5648
▁Sav	-10.5651
▁locality	-10.5651
▁core	-10.5652
▁Bowl	-10.5654
▁Lion	-10.5654
nova	-10.5658
▁fluid	-10.5658
vic	-10.5662
▁attraction	-10.5666
▁horses	-10.5668
▁Centre	-10.5669
▁Got	-10.5672
▁push	-10.5672
▁worn	-10.568
▁treaty	-10.5681
▁Bengal	-10.5683
▁...	-10.5688
▁holding	-10.569
later	-10.5692
▁Dog	-10.5693
ifi	-10.5694
▁Vancouver	-10.5695
▁sponsor	-10.5695
▁1800	-10.5701
nate	-10.5701
▁represents	-10.5709
▁prince	-10.5709
▁diameter	-10.5711
▁tennis	-10.5712
▁operas	-10.5713
▁Anglo	-10.5713
▁Cass	-10.5716
tell	-10.5716
▁Among	-10.5717
▁Bros	-10.5719
▁honour	-10.5727
ically	-10.5736
▁branches	-10.5738
▁Santo	-10.5738
▁Dick	-10.5739
chy	-10.5741
▁taste	-10.5742
▁amounts	-10.5746
▁seventh	-10.5746
▁copy	-10.5747
▁corner	-10.5748
▁Titan	-10.5749
▁ill	-10.5751
▁Bruce	-10.5752
▁Territory	-10.5759
▁increasing	-10.5759
▁Hebrew	-10.5759
▁rural	-10.5759
▁genera	-10.5763
hard	-10.5763
▁shut	-10.5765
▁2019,	-10.5765
Saxon	-10.5767
▁Norman	-10.5769
▁structures	-10.5778
▁Julian	-10.5779
▁chr	-10.578
▁Peace	-10.5781
▁Aquitaine	-10.5787
▁attached	-10.579
▁Library	-10.5791
▁belongs	-10.5792
▁Jay	-10.5793
fra	-10.5795
▁trained	-10.5801
▁adapted	-10.5801
▁dedicated	-10.5807
▁perhaps	-10.5807
▁territories	-10.5807
▁senior	-10.5807
▁Children	-10.5808
▁sto	-10.5809
▁toxic	-10.5809
▁Hard	-10.5814
▁rose	-10.5815
▁Yonne	-10.5824
▁evolved	-10.5828
▁Eric	-10.5832
▁soul	-10.5834
▁Dead	-10.5836
▁contribut	-10.5837
▁Board	-10.5839
▁concentration	-10.5839
▁expert	-10.5839
▁creature	-10.584
▁Historic	-10.5841
▁Bart	-10.5841
▁management	-10.5841
▁colonies	-10.5842
▁Kent	-10.5844
▁traded	-10.5845
▁Mak	-10.5845
▁rail	-10.5851
▁mate	-10.5854
▁romantic	-10.5855
▁Draft	-10.5855
▁youth	-10.5864
▁CBS	-10.5872
▁mixture	-10.5872
▁Gordon	-10.5873
tire	-10.5874
▁particle	-10.5877
▁Jeff	-10.5878
▁fill	-10.5881
rig	-10.5884
▁Bat	-10.5888
▁shore	-10.5895
▁1910	-10.5895
core	-10.5895
▁Buck	-10.5898
isation	-10.59
▁weapon	-10.5904
▁Pokmon	-10.5904
▁Virgin	-10.5907
▁ride	-10.5908
▁Pont	-10.5915
▁mod	-10.5915
made	-10.5921
▁reality	-10.5922
▁Antonio	-10.5922
uz	-10.5936
▁typical	-10.5937
▁Mayor	-10.5938
jan	-10.5939
▁internal	-10.5941
▁Raj	-10.5943
▁stable	-10.5944
▁Bishop	-10.5953
▁Therefore	-10.5953
lah	-10.5954
▁ions	-10.5954
▁Howard	-10.5965
bot	-10.5966
▁vary	-10.5967
▁Atlanta	-10.5969
▁collapse	-10.5969
▁Haiti	-10.5969
▁dish	-10.597
▁Site	-10.5971
Co	-10.5974
dio	-10.5975
▁Malaysia	-10.5977
▁epi	-10.598
▁marked	-10.5981
▁Maryland	-10.5982
dium	-10.5989
PS	-10.5993
under	-10.5994
▁bro	-10.5995
hill	-10.6001
▁Wii	-10.6003
IS	-10.6004
illo	-10.6006
BA	-10.6012
▁measurement	-10.6021
▁Range	-10.6025
cott	-10.6026
▁Bru	-10.6027
▁Train	-10.6027
▁regarded	-10.603
▁coastal	-10.6031
▁tracks	-10.6031
▁Jupiter	-10.6034
▁Norwegian	-10.6034
▁Lang	-10.6039
▁copper	-10.6039
▁resources	-10.6039
▁via	-10.6041
▁pull	-10.6042
▁images	-10.6044
pol	-10.6046
▁Patrick	-10.6052
▁assistant	-10.6054
cut	-10.6058
▁comment	-10.6062
uka	-10.6063
▁bull	-10.6064
▁prisoners	-10.6065
▁spider	-10.6067
▁Tam	-10.6075
▁Communist	-10.6084
▁Around	-10.6085
▁Until	-10.6085
▁transform	-10.6086
▁Nan	-10.6086
▁mar	-10.609
▁Shah	-10.6099
▁revealed	-10.6104
▁Cru	-10.6104
▁passes	-10.6108
AC	-10.6108
▁Greater	-10.611
gli	-10.6114
▁skull	-10.6117
▁dream	-10.6117
▁internet	-10.6118
▁commander	-10.6124
▁sung	-10.6124
▁Fra	-10.6133
▁elephant	-10.6133
▁popularity	-10.6139
who	-10.614
▁Gl	-10.6142
pet	-10.6142
get	-10.6145
▁zero	-10.615
▁Florence	-10.6151
ark	-10.6157
▁athlete	-10.6158
▁Lin	-10.6159
▁cousin	-10.6166
▁Blo	-10.6169
▁NBC	-10.617
-200	-10.6171
▁der	-10.6177
▁promote	-10.6179
order	-10.6184
▁Percy	-10.6189
▁blow	-10.6189
cious	-10.619
tail	-10.619
▁Democrat	-10.6192
▁Metro	-10.6193
meters	-10.6194
▁Saturday	-10.62
▁maximum	-10.62
▁principal	-10.62
▁Jacob	-10.62
▁Sound	-10.6205
▁Ron	-10.6208
▁handle	-10.6216
wl	-10.6216
▁blind	-10.6216
▁injury	-10.6217
▁operated	-10.6233
ique	-10.6236
▁gate	-10.6246
▁constitution	-10.6247
▁fresh	-10.6249
▁absorb	-10.625
▁republic	-10.625
▁rhythm	-10.625
▁surgery	-10.625
▁resistance	-10.6251
▁Just	-10.6252
▁Sarah	-10.626
▁Armenia	-10.626
court	-10.6266
▁wealth	-10.6267
Al	-10.6268
▁mobile	-10.6271
▁passenger	-10.6279
▁Near	-10.6281
kel	-10.6282
▁Hell	-10.6285
▁losing	-10.6287
▁(15	-10.6295
▁talking	-10.6295
▁hope	-10.6298
mbo	-10.63
▁Barr	-10.6301
▁MP	-10.6303
▁review	-10.6308
▁bin	-10.6312
▁charged	-10.6313
▁decrease	-10.6317
▁kilometers	-10.6317
▁representative	-10.6318
▁Madrid	-10.6318
▁Franklin	-10.6321
▁biology	-10.6322
▁seal	-10.6323
oper	-10.6324
▁Suffolk	-10.6334
▁continues	-10.6335
▁suggests	-10.6337
▁titled	-10.6337
▁harm	-10.6344
▁roots	-10.6345
▁hunting	-10.6349
▁Rights	-10.635
hem	-10.6356
▁Miller	-10.6364
▁Welsh	-10.6368
▁Actor	-10.6368
▁keyboard	-10.6369
▁sword	-10.6371
▁existence	-10.6371
rell	-10.6373
▁Barn	-10.6373
▁Met	-10.6373
▁Oak	-10.6379
▁quarter	-10.6385
SD	-10.6386
cate	-10.6389
▁Bang	-10.6393
iya	-10.6395
▁See	-10.6402
▁affair	-10.6402
▁credit	-10.6402
▁Place	-10.6405
hil	-10.6406
▁tip	-10.6411
▁steam	-10.6419
cock	-10.643
▁performances	-10.6435
▁Slav	-10.6436
▁Girl	-10.6437
▁Lar	-10.6437
▁classified	-10.6438
▁plot	-10.6439
▁neuro	-10.644
▁identified	-10.6441
▁ka	-10.6446
▁Lor	-10.6449
▁signs	-10.6451
▁studying	-10.6452
▁necessary	-10.6453
▁false	-10.6453
▁cheese	-10.6454
▁Trump	-10.6457
▁occasion	-10.6469
▁Lan	-10.6469
▁Bavaria	-10.6471
▁Ukraine	-10.6487
▁gone	-10.6491
▁debate	-10.6493
▁Mara	-10.6498
Le	-10.6499
▁Sau	-10.6502
kka	-10.6502
August	-10.6502
▁Electric	-10.6504
▁bishop	-10.6505
▁Emil	-10.6506
▁Stan	-10.6508
▁Ryan	-10.6516
▁Margaret	-10.6522
▁Ant	-10.6525
▁grand	-10.6527
▁contest	-10.653
▁Moore	-10.6531
▁Victor	-10.6534
▁Israeli	-10.6542
▁poems	-10.6543
class	-10.6544
3,000	-10.6544
▁genes	-10.655
onne	-10.6552
songwriter	-10.6554
▁Junior	-10.6556
▁carrier	-10.6557
▁importance	-10.6557
zen	-10.6561
▁ready	-10.657
▁individuals	-10.6577
bat	-10.6579
▁Rio	-10.6579
▁Single	-10.6582
▁Cole	-10.6584
RC	-10.6588
▁extended	-10.6588
▁worth	-10.6589
▁Hunt	-10.659
word	-10.6591
lid	-10.6592
rang	-10.6594
▁kick	-10.6594
▁meets	-10.6595
▁Lil	-10.6598
▁Isle	-10.6599
ssel	-10.6606
▁opinion	-10.6608
▁linked	-10.661
▁successor	-10.661
▁additional	-10.6611
▁tele	-10.6612
pla	-10.662
▁Born	-10.662
▁48	-10.6624
olo	-10.6624
▁partly	-10.6625
▁journey	-10.6626
▁visual	-10.6626
300	-10.6627
flu	-10.6629
▁transfer	-10.6631
▁ver	-10.6637
▁soldier	-10.6639
▁Bear	-10.6642
▁Ry	-10.6643
▁Jon	-10.6644
▁sitcom	-10.6644
▁cable	-10.6645
break	-10.6646
▁arrondissements	-10.6646
▁wish	-10.6649
life	-10.6654
AR	-10.6655
hou	-10.6658
▁Tel	-10.6658
▁Following	-10.666
▁monument	-10.666
▁questions	-10.6663
▁flower	-10.6669
▁Run	-10.6672
mouth	-10.6677
▁launch	-10.6678
▁atomic	-10.6688
▁DS	-10.6689
▁Colombia	-10.6695
▁parallel	-10.6695
▁Spi	-10.67
▁44	-10.671
▁Ivan	-10.6711
yama	-10.6713
▁observation	-10.6713
▁shift	-10.6713
▁stress	-10.6713
▁designer	-10.6717
▁Costa	-10.672
▁Brooklyn	-10.6731
▁variation	-10.6731
▁birthday	-10.6733
▁Hand	-10.6737
▁Non	-10.6738
▁curve	-10.6741
▁Harris	-10.6744
▁Gran	-10.6744
▁Liberal	-10.6744
mini	-10.6747
▁Anthony	-10.6748
▁graduating	-10.6748
▁variable	-10.6748
▁childhood	-10.675
▁mot	-10.6751
▁prove	-10.6751
▁armed	-10.6753
phon	-10.6755
▁predators	-10.6759
try	-10.6763
CC	-10.6764
mission	-10.6766
▁benefit	-10.6766
▁stretch	-10.6766
▁Stockholm	-10.6766
ties	-10.6767
▁celebrated	-10.6767
▁underground	-10.6768
▁speaking	-10.678
▁precipitation	-10.6783
▁closer	-10.6794
▁Houston	-10.6801
organ	-10.6807
▁Alan	-10.6811
▁burned	-10.6817
rest	-10.6817
▁Bulgaria	-10.6819
▁Queensland	-10.6819
▁bread	-10.682
▁firm	-10.6822
cop	-10.6823
▁coal	-10.6827
▁distinguish	-10.6827
▁ser	-10.6833
▁Pur	-10.6833
▁Symphony	-10.6837
December	-10.6837
▁skills	-10.6843
▁Eve	-10.6845
▁kilometres	-10.6846
▁rocket	-10.6846
▁assist	-10.6847
ello	-10.6848
▁developing	-10.6849
▁classic	-10.6854
▁retirement	-10.6854
▁instance	-10.6856
▁advanced	-10.6857
▁Med	-10.6861
ES	-10.6861
▁resulted	-10.6865
▁Bird	-10.6868
▁disaster	-10.6872
▁strange	-10.6872
movie	-10.6873
▁mistake	-10.6873
▁airplane	-10.6873
▁frame	-10.6875
▁loan	-10.6877
▁bone	-10.6877
▁Mai	-10.6878
▁thr	-10.688
pop	-10.6882
▁drafted	-10.6883
▁Mart	-10.6887
▁Caesar	-10.689
September	-10.6891
ela	-10.6896
▁prayer	-10.6903
▁Know	-10.6904
▁identity	-10.6908
▁truck	-10.6909
▁Maine	-10.6909
▁et	-10.691
▁coll	-10.6911
▁Ul	-10.6913
▁remember	-10.6913
▁Rich	-10.6923
tribute	-10.6923
▁discover	-10.6925
▁VI	-10.6926
▁choir	-10.693
▁Billy	-10.6935
▁ABC	-10.6935
▁Guinea	-10.6944
▁Ang	-10.6946
level	-10.6946
▁fighter	-10.6947
▁Corps	-10.6949
▁Orange	-10.6949
▁meter	-10.6959
▁Sid	-10.6959
▁guilty	-10.6962
▁borough	-10.6966
▁ban	-10.697
ogen	-10.6975
▁Lanka	-10.6977
▁possibly	-10.698
▁soccer	-10.698
▁Arnold	-10.698
▁translation	-10.698
▁Nico	-10.6981
▁Bea	-10.6982
weight	-10.6987
▁raise	-10.6997
zel	-10.6998
▁Coll	-10.7001
700	-10.7004
▁Turk	-10.7005
fort	-10.7014
▁Girls	-10.7015
▁contrast	-10.7016
▁Austin	-10.7016
▁gift	-10.7016
▁scientist	-10.7017
July	-10.7018
▁molecule	-10.7018
gun	-10.7018
CO	-10.702
elli	-10.7025
▁claims	-10.7026
▁Kon	-10.7028
▁Liber	-10.7029
EC	-10.7031
▁Simpson	-10.7034
▁sculpture	-10.7034
▁Oregon	-10.7034
▁phase	-10.7036
gran	-10.7038
▁expression	-10.7044
▁1000	-10.7049
lau	-10.705
▁balance	-10.7052
person	-10.7052
▁Jimmy	-10.7054
▁farming	-10.7056
lumin	-10.7056
▁pure	-10.7058
ige	-10.7064
▁rarely	-10.7064
▁lowest	-10.7066
tine	-10.7068
April	-10.7072
▁Miami	-10.7073
▁Corn	-10.7078
▁Jam	-10.7083
▁parent	-10.7084
▁capacity	-10.7089
▁Nelson	-10.7089
vert	-10.7089
▁neighborhood	-10.7089
▁infect	-10.7093
▁Kill	-10.7095
elect	-10.71
▁danger	-10.7105
▁Phoenix	-10.7107
▁vessel	-10.7107
▁Dallas	-10.7108
▁committed	-10.7108
▁pipe	-10.7111
▁Brand	-10.7113
▁violent	-10.7125
▁Wagner	-10.7125
▁Abraham	-10.7125
▁gender	-10.7125
▁Movie	-10.7126
▁Though	-10.7127
▁enjoy	-10.7127
▁Often	-10.7128
▁landfall	-10.7128
▁Health	-10.7129
slav	-10.7129
▁1911	-10.7132
▁secondary	-10.7137
▁Call	-10.714
▁crops	-10.7141
▁Hungary	-10.7147
▁Batman	-10.715
▁37	-10.7152
▁exp	-10.7154
▁Kam	-10.7156
▁Renaissance	-10.7162
▁pool	-10.7162
January	-10.7164
▁1916	-10.7167
▁discuss	-10.7167
▁applications	-10.717
IC	-10.7171
▁seems	-10.7174
▁Epi	-10.7174
▁Pic	-10.7177
▁lift	-10.7178
▁realize	-10.718
shaped	-10.7185
mine	-10.7189
▁reports	-10.7192
▁Dy	-10.7195
▁Bun	-10.7195
▁sin	-10.7198
▁Dakota	-10.7199
▁Labour	-10.7199
▁Apollo	-10.7199
▁decline	-10.7199
▁funeral	-10.7199
▁trust	-10.7199
▁Diego	-10.7203
PA	-10.7205
▁flo	-10.721
▁bullet	-10.7211
fall	-10.7214
▁Gil	-10.7217
▁knight	-10.7217
▁convention	-10.7217
▁Bureau	-10.7218
▁Third	-10.7219
▁detail	-10.7225
▁Due	-10.7231
disambiguation	-10.7236
▁Depression	-10.7236
▁license	-10.7236
▁Den	-10.724
ffin	-10.7242
▁Lot	-10.7243
▁roughly	-10.7245
▁Pittsburgh	-10.7254
▁Hav	-10.7255
March	-10.7256
▁doctors	-10.7256
rous	-10.7258
▁cheap	-10.7258
▁Tag	-10.7261
▁melt	-10.7263
aba	-10.7263
▁1890	-10.7267
▁cricket	-10.7273
▁mathematical	-10.7273
▁cup	-10.7273
▁cattle	-10.7276
▁moral	-10.7278
▁civilian	-10.7283
▁unable	-10.7289
▁Obama	-10.7291
▁jaw	-10.7293
range	-10.7295
February	-10.7295
June	-10.7296
▁Rou	-10.7297
▁Chu	-10.7303
▁unlike	-10.7304
▁largely	-10.7305
▁EP	-10.7306
▁Chan	-10.7306
▁server	-10.7307
▁bronze	-10.731
▁medieval	-10.731
▁cub	-10.7317
AA	-10.732
▁Snow	-10.7323
issa	-10.7324
▁Front	-10.7331
▁Joan	-10.7332
▁38	-10.7335
▁Morgan	-10.7336
dition	-10.7337
▁rice	-10.7338
▁stored	-10.734
▁beach	-10.7341
▁Scar	-10.7346
position	-10.7346
▁diagnosed	-10.7347
▁error	-10.7347
▁Munich	-10.7348
▁extend	-10.735
▁highway	-10.7351
November	-10.7351
▁rapper	-10.7352
▁clock	-10.736
▁Together	-10.7366
▁struggle	-10.7366
▁roof	-10.7366
-18	-10.7382
▁vertebra	-10.7385
▁(4	-10.7389
▁stem	-10.7406
▁cult	-10.7409
▁Much	-10.7414
kg	-10.7419
▁emergency	-10.7422
▁Dal	-10.7422
▁crowd	-10.7422
▁visitors	-10.7423
▁tape	-10.7428
▁converted	-10.7436
▁Media	-10.7441
▁Anderson	-10.7441
▁fellow	-10.7443
▁Raven	-10.7455
▁franchise	-10.746
▁horror	-10.746
tier	-10.7462
▁extreme	-10.7463
▁belt	-10.7473
▁spiritual	-10.748
▁Jerry	-10.748
▁43	-10.7483
▁Der	-10.7499
▁armies	-10.7502
▁improved	-10.7509
▁residents	-10.7513
▁Cleveland	-10.7517
▁Shakespeare	-10.7517
▁Blackhawks	-10.7517
▁Dragon	-10.7517
ido	-10.7518
▁Bow	-10.752
▁1915	-10.7523
▁Such	-10.7525
▁hydro	-10.7527
lian	-10.7527
▁arrive	-10.753
▁Plant	-10.7532
▁chromosome	-10.7536
▁metropolitan	-10.7536
▁Brook	-10.7539
▁executed	-10.7541
▁chairman	-10.7541
▁shorter	-10.7549
tun	-10.7553
▁entirely	-10.7554
▁mathematician	-10.7555
▁surrender	-10.7555
chlor	-10.7557
▁Milan	-10.756
MI	-10.7565
NHL	-10.7565
▁McG	-10.7567
jar	-10.757
▁Cooper	-10.7574
▁Cretaceous	-10.7574
▁Labor	-10.7579
▁gla	-10.7588
lee	-10.7588
▁Building	-10.7593
▁galaxy	-10.7593
▁volcano	-10.7599
▁helping	-10.7606
▁mag	-10.7611
▁Russell	-10.7613
▁steal	-10.7613
▁visible	-10.7613
▁Blood	-10.7615
▁civilization	-10.7616
▁cream	-10.7617
▁usual	-10.7617
▁Johnny	-10.7631
▁disappear	-10.7632
▁feathers	-10.7633
▁Child	-10.7635
logy	-10.7637
▁Tamil	-10.7637
▁resist	-10.7641
▁load	-10.7641
▁1870	-10.7645
▁explore	-10.7649
▁Natural	-10.7651
▁download	-10.7653
▁1901	-10.7655
▁Wolf	-10.7656
▁fair	-10.7657
▁DC	-10.7659
▁Giant	-10.7661
▁proved	-10.7662
▁Auto	-10.7662
door	-10.7663
aire	-10.7663
▁progress	-10.7667
▁slave	-10.7673
▁Carlos	-10.7677
vre	-10.7678
▁Confederate	-10.769
▁Soccer	-10.769
▁academic	-10.769
▁prop	-10.7691
▁Sanders	-10.7694
▁Pictures	-10.7694
▁frequently	-10.7698
rma	-10.7698
▁sight	-10.7701
▁PC	-10.7705
▁Shan	-10.7711
▁relations	-10.7713
▁trait	-10.7716
▁exact	-10.7719
Cte	-10.7728
▁Auvergne	-10.7729
▁technical	-10.7729
▁Danish	-10.7734
▁Guy	-10.7738
icle	-10.774
▁factors	-10.7741
take	-10.7742
▁banned	-10.7749
PD	-10.7749
▁Wonder	-10.775
▁hired	-10.775
including	-10.7758
▁Dave	-10.7762
▁descend	-10.7767
▁Columbus	-10.7768
▁Provence	-10.7768
▁grade	-10.777
▁pig	-10.7777
▁Pie	-10.7777
▁accused	-10.7781
▁Hil	-10.7788
gia	-10.7795
▁warning	-10.7799
Ha	-10.7799
▁chloride	-10.7807
▁beyond	-10.7807
▁Standard	-10.7808
▁arrest	-10.7811
▁55	-10.7812
▁dating	-10.7821
pher	-10.7823
ienne	-10.7824
▁Independence	-10.7826
▁Medical	-10.7827
ova	-10.7828
▁regard	-10.7831
▁root	-10.7833
▁Spa	-10.7838
▁Gam	-10.7838
rog	-10.7845
▁march	-10.7845
▁survey	-10.7846
▁Capital	-10.7846
▁Rhode	-10.7846
▁Allied	-10.7847
term	-10.7848
▁missing	-10.7848
▁Story	-10.7853
▁arranged	-10.7853
October	-10.7854
ovi	-10.7862
▁UNESCO	-10.7866
▁Essex	-10.7866
▁Foreign	-10.7866
▁Linux	-10.7867
▁Express	-10.7867
▁businessman	-10.7869
inus	-10.7873
▁publication	-10.7873
▁dinosaurs	-10.7881
▁49	-10.7882
▁explorer	-10.7888
▁liver	-10.789
mount	-10.7891
▁Off	-10.7896
ould	-10.7903
▁qualification	-10.7905
▁servant	-10.7905
▁1908	-10.7908
▁Kevin	-10.7908
Li	-10.7912
▁athletes	-10.7915
▁sad	-10.7917
card	-10.792
▁Cou	-10.792
hol	-10.7921
anne	-10.7922
▁skill	-10.7924
pit	-10.7925
▁tunnel	-10.7925
▁restrict	-10.7926
▁Flor	-10.7928
▁lion	-10.7942
▁Barcelona	-10.7945
▁liberal	-10.7945
▁smoke	-10.7945
▁slavery	-10.7949
▁patients	-10.7954
▁Tiger	-10.7956
▁Iranian	-10.7957
tech	-10.7958
▁journal	-10.7964
▁frequency	-10.7965
▁Interstate	-10.7965
▁containing	-10.7966
▁logic	-10.7981
▁estimate	-10.7981
▁entrance	-10.7985
▁Julie	-10.7985
▁Gate	-10.7987
▁Medicine	-10.7987
shima	-10.7988
sperm	-10.7989
▁exhibition	-10.7994
roll	-10.7995
400	-10.8001
▁astronomer	-10.8005
▁communist	-10.8005
▁worse	-10.8005
▁Bron	-10.8008
pass	-10.8009
▁vision	-10.8023
▁Different	-10.8025
▁travelled	-10.8028
▁Any	-10.803
▁despite	-10.8045
▁thirty	-10.8045
▁presence	-10.8045
▁Lennon	-10.8046
▁41	-10.8046
▁Henri	-10.805
▁hide	-10.806
▁Adventure	-10.8065
▁commission	-10.8065
some	-10.8083
ault	-10.8084
▁dancing	-10.8085
▁factory	-10.8085
▁tiny	-10.8086
▁stat	-10.8087
▁involves	-10.8092
hall	-10.8095
▁massive	-10.8099
▁Shu	-10.8101
▁graduate	-10.8102
▁39	-10.8103
wall	-10.8104
▁Venezuela	-10.8105
▁derived	-10.8105
▁hyper	-10.8105
▁Rica	-10.8106
▁colonial	-10.8107
▁deliver	-10.8111
path	-10.8116
berry	-10.8117
▁mainland	-10.8119
▁(10	-10.812
▁output	-10.8121
▁businesses	-10.8123
▁shortly	-10.8124
▁conservative	-10.8125
▁Catherine	-10.8125
▁grain	-10.8125
▁Oscar	-10.8126
▁Harrison	-10.8134
▁Grant	-10.8138
stead	-10.8143
▁Small	-10.8148
▁drummer	-10.8148
▁processes	-10.8149
▁Pierre	-10.8149
▁estate	-10.815
▁dragon	-10.8151
▁Potter	-10.8156
▁processor	-10.8158
▁drain	-10.8166
▁rainfall	-10.8166
▁Yoshi	-10.8168
lb	-10.8168
ution	-10.8169
mination	-10.8172
▁mining	-10.8173
▁verse	-10.8176
▁organism	-10.8178
uru	-10.8179
▁mosque	-10.8186
gging	-10.8187
▁adaptation	-10.8192
▁expanded	-10.8196
vig	-10.8199
▁85	-10.8201
eva	-10.8203
▁chair	-10.821
▁Bernard	-10.821
▁invaded	-10.8214
▁trail	-10.8214
▁cow	-10.8216
verse	-10.8217
atory	-10.8218
▁Birmingham	-10.8227
▁Google	-10.8227
▁vector	-10.8228
ference	-10.8231
▁Iceland	-10.8231
▁request	-10.8232
▁pea	-10.8235
▁Chang	-10.8243
psi	-10.8244
▁greatly	-10.8251
bby	-10.8254
game	-10.8254
▁convert	-10.8257
▁Athens	-10.8268
▁Season	-10.8273
▁UN	-10.8275
phil	-10.8276
DS	-10.8277
▁Yorkshire	-10.8279
▁Very	-10.8281
▁Saxony	-10.8288
▁Organization	-10.8289
▁entertainment	-10.829
▁Studios	-10.8305
▁Benjamin	-10.8309
▁agriculture	-10.8309
▁controversial	-10.8309
▁Movement	-10.8309
▁Newton	-10.8309
▁pianist	-10.8309
▁net	-10.8313
▁pink	-10.8316
▁2013)	-10.8318
▁Rat	-10.8324
▁Solar	-10.8325
▁Ecuador	-10.8329
▁telephone	-10.833
4,000	-10.8331
▁Xbox	-10.8331
▁Pad	-10.8331
▁1913	-10.8335
▁newly	-10.8342
▁Record	-10.8342
▁gland	-10.8342
▁drinking	-10.8345
▁evening	-10.8349
▁intelligence	-10.835
▁prominent	-10.835
rag	-10.835
▁saint	-10.835
▁Friend	-10.8352
▁repeated	-10.8355
▁plus	-10.8355
ophy	-10.8357
▁Grace	-10.8367
pell	-10.837
▁Hungarian	-10.8371
▁Universal	-10.8371
▁depth	-10.8371
▁portion	-10.8372
▁Punk	-10.8375
ichi	-10.8377
▁insect	-10.838
▁wearing	-10.8384
▁GP	-10.8388
▁advance	-10.8389
▁tornado	-10.8392
▁biological	-10.8394
stad	-10.8398
▁Ny	-10.8399
▁Rosa	-10.84
psy	-10.8401
▁formerly	-10.8408
cover	-10.8408
▁supplies	-10.8412
▁breast	-10.8412
▁depict	-10.8414
post	-10.8414
▁Normandy	-10.8415
▁Sara	-10.8422
master	-10.8424
Azur	-10.8436
▁Bir	-10.8441
Man	-10.8446
▁Mother	-10.8446
▁IP	-10.8448
▁Dia	-10.8448
▁loved	-10.8453
▁neighbour	-10.8454
▁primarily	-10.8454
▁intended	-10.8454
▁heavily	-10.8454
▁settlers	-10.8455
▁Zone	-10.8458
code	-10.8459
▁Strait	-10.846
▁Flag	-10.8462
▁foundation	-10.8464
▁patient	-10.8465
▁adding	-10.8477
▁criticized	-10.8477
abad	-10.848
▁environmental	-10.8482
▁Model	-10.8483
smith	-10.8484
▁Imp	-10.8494
▁algorithm	-10.8496
▁calculate	-10.8496
▁Phillip	-10.8496
▁invited	-10.8497
▁Low	-10.8499
▁eighth	-10.8504
active	-10.8506
AN	-10.8506
▁collected	-10.851
▁favor	-10.8516
▁gravity	-10.8517
▁repair	-10.8517
▁uniform	-10.8517
III	-10.8518
Lo	-10.8524
rim	-10.8524
cri	-10.8534
▁Roosevelt	-10.8538
▁stomach	-10.8538
▁rifle	-10.8538
▁fix	-10.8539
▁planning	-10.8541
bridge	-10.855
▁alongside	-10.855
▁Arabia	-10.8552
▁tie	-10.8557
▁weakened	-10.8559
▁jail	-10.8559
▁Stuart	-10.856
▁landscape	-10.8561
▁Charlie	-10.8561
▁witch	-10.8562
▁1905	-10.8563
western	-10.8565
▁tallest	-10.8565
▁bow	-10.8569
▁Luke	-10.8571
▁expedition	-10.858
▁soundtrack	-10.858
▁Broadway	-10.8581
▁10,000	-10.8582
▁Brun	-10.8584
▁Take	-10.8588
▁producing	-10.8593
▁wooden	-10.8594
▁artificial	-10.8601
▁immune	-10.8601
▁diplomat	-10.8603
▁Mun	-10.8604
▁suffering	-10.861
▁laid	-10.8611
rite	-10.8618
▁Conservative	-10.8623
▁Economic	-10.8623
▁exercise	-10.8623
▁Utah	-10.8623
▁Warner	-10.863
▁opposed	-10.863
▁Desert	-10.8644
▁farmers	-10.8644
▁Venice	-10.8645
▁WWF	-10.8648
boy	-10.8649
▁sheep	-10.8651
▁Saudi	-10.8652
▁understanding	-10.8653
fire	-10.8654
agne	-10.8655
▁Stre	-10.8656
▁prefer	-10.866
▁Cher	-10.8663
▁chocolate	-10.8665
▁respectively	-10.8665
▁Vale	-10.8674
▁Bab	-10.8677
▁tale	-10.8684
▁Tin	-10.8684
rank	-10.8685
▁Security	-10.8687
▁disagree	-10.8687
▁talked	-10.8687
▁shock	-10.8688
▁Celtic	-10.8689
▁Susan	-10.8691
▁Horn	-10.8691
▁737	-10.8692
▁verb	-10.8696
▁Arena	-10.8701
▁Him	-10.8701
▁95	-10.8701
▁Dance	-10.8707
▁express	-10.8708
▁SmackDown	-10.8708
▁pneumonia	-10.8708
▁Testament	-10.8708
,000,000	-10.8708
▁combat	-10.8709
▁skate	-10.8714
▁bell	-10.8714
onia	-10.8715
▁Lyn	-10.8718
▁vice	-10.8719
▁footballer	-10.8725
▁Villa	-10.8727
▁locomotive	-10.8729
▁driving	-10.8729
cel	-10.8731
▁Wright	-10.8735
▁Gall	-10.8739
▁Wayne	-10.8741
speaking	-10.8745
ovich	-10.8746
▁1860	-10.8746
▁cooking	-10.8747
▁chest	-10.8747
▁correspond	-10.8751
▁complications	-10.8751
▁syndrome	-10.8751
▁Harvard	-10.8751
▁badly	-10.8752
▁Friday	-10.8753
▁pope	-10.8761
face	-10.8765
▁manage	-10.8766
▁creator	-10.8774
▁shoe	-10.8775
▁Gan	-10.8775
▁resulting	-10.8785
▁sy	-10.8785
▁Tea	-10.8788
▁explosion	-10.8794
▁specimen	-10.8794
▁committee	-10.8794
▁incident	-10.8794
▁Next	-10.8794
▁details	-10.8795
▁portray	-10.8796
▁Rad	-10.8797
▁Duck	-10.8801
far	-10.8803
osa	-10.8807
pie	-10.8809
▁swimming	-10.8816
▁Albania	-10.8816
▁disability	-10.8819
▁Leo	-10.8822
▁Regional	-10.8824
▁seek	-10.8826
German	-10.8832
central	-10.8835
cula	-10.8837
fil	-10.8837
▁Jamaica	-10.8837
▁truth	-10.8838
▁mud	-10.8838
▁peaked	-10.8839
▁1903	-10.8842
▁wounded	-10.8844
▁Johann	-10.8845
▁Barry	-10.8846
▁quick	-10.8847
▁Syn	-10.8848
unit	-10.8849
▁fleet	-10.8852
▁Our	-10.8852
▁Salzburg	-10.8859
▁Yellow	-10.8859
▁fantasy	-10.8859
comp	-10.886
▁plea	-10.8861
pod	-10.8864
▁Living	-10.8869
▁murdered	-10.887
▁Artist	-10.887
▁Roll	-10.8871
script	-10.8871
▁conquered	-10.8874
▁divide	-10.888
▁Petersburg	-10.8881
▁Ted	-10.8883
▁wore	-10.8884
▁Finally	-10.8885
▁prior	-10.8885
eira	-10.8886
▁draft	-10.889
▁contestant	-10.8892
▁Gill	-10.8894
▁Father	-10.8896
▁Hotel	-10.8901
▁mechanical	-10.8903
▁powder	-10.8903
▁sauce	-10.8903
▁anthem	-10.8904
uf	-10.8907
▁exile	-10.8919
▁equivalent	-10.8925
▁dinosaur	-10.893
▁magnet	-10.8931
force	-10.8936
▁passing	-10.8938
FL	-10.894
▁Buddhist	-10.8947
▁celebration	-10.8947
▁Animal	-10.8947
▁(1999)	-10.8947
▁Graham	-10.8955
▁mill	-10.8958
▁identify	-10.8969
▁Thailand	-10.8969
▁coffee	-10.8969
▁expansion	-10.8969
▁ratio	-10.897
▁Arctic	-10.8971
▁Kara	-10.8976
▁contribution	-10.8976
▁proof	-10.8976
▁observed	-10.8977
▁proper	-10.8977
▁involve	-10.8981
sexual	-10.8985
bble	-10.8986
▁rear	-10.8987
▁mechanism	-10.8991
▁ticket	-10.8991
▁Computer	-10.8991
▁Carol	-10.8996
logical	-10.8997
▁grey	-10.9
▁walking	-10.9002
borough	-10.9009
power	-10.9012
▁educated	-10.9013
▁eruption	-10.9013
▁fold	-10.9013
▁cake	-10.9015
▁immigrants	-10.9016
▁Jar	-10.9016
▁span	-10.9019
assi	-10.9023
▁determine	-10.9034
▁Development	-10.9035
▁Hampshire	-10.9035
▁differ	-10.9038
▁66	-10.9039
▁breaking	-10.9041
▁Poly	-10.9043
▁shaped	-10.9045
erva	-10.9048
▁dated	-10.9049
▁Ministry	-10.9057
▁Agency	-10.9058
▁Transport	-10.9059
▁promotion	-10.9061
▁factor	-10.9061
nam	-10.9065
▁sodium	-10.9066
▁1880	-10.9075
▁Let	-10.9078
▁celebrate	-10.9078
▁monster	-10.9079
▁golden	-10.908
▁Freedom	-10.9081
▁Baker	-10.9091
▁participated	-10.9092
case	-10.9094
ropod	-10.9094
round	-10.9095
district	-10.9097
rp	-10.9098
▁Ferr	-10.9099
▁Lieutenant	-10.9101
▁constructed	-10.9102
zza	-10.9105
▁Steel	-10.9106
enburg	-10.9107
▁MTV	-10.9109
▁citizen	-10.9111
▁strongly	-10.9116
▁seed	-10.9116
▁Kre	-10.9119
jack	-10.9121
▁Liverpool	-10.9124
▁recommend	-10.9124
▁52	-10.9129
▁Base	-10.9135
▁consul	-10.9137
▁teenager	-10.914
▁apply	-10.9141
▁Trade	-10.9145
▁asks	-10.9145
▁destruction	-10.9146
▁telescope	-10.9146
▁session	-10.9146
▁shrine	-10.9147
▁basin	-10.9151
▁Bai	-10.9153
action	-10.9156
▁nose	-10.9156
▁application	-10.9159
▁Sex	-10.9167
▁Military	-10.9169
▁continuous	-10.9169
▁volcanic	-10.9169
▁Finnish	-10.9169
▁peninsula	-10.9169
▁clay	-10.9175
▁tram	-10.9183
▁description	-10.9191
▁ordinary	-10.9191
▁smell	-10.9191
▁Operation	-10.9193
▁authorities	-10.9195
▁nor	-10.9196
▁saved	-10.9198
▁convict	-10.9203
DP	-10.9203
▁regularly	-10.9206
▁Stock	-10.9206
▁Barbara	-10.9215
▁beetle	-10.9216
▁geo	-10.9217
▁deposit	-10.9219
▁picked	-10.9221
▁Grey	-10.9228
▁Pot	-10.9233
azi	-10.9234
alia	-10.9235
▁fifteen	-10.9236
▁psychology	-10.9236
▁leap	-10.9241
▁Serbia	-10.9242
▁carrying	-10.9243
General	-10.9256
▁Rain	-10.9257
▁accurate	-10.9259
▁subtropical	-10.9259
▁screenwriter	-10.9259
▁Marshall	-10.926
▁Derby	-10.9261
▁fame	-10.9268
▁Thor	-10.9269
mur	-10.927
▁explained	-10.9277
MC	-10.9281
▁knock	-10.9281
▁segment	-10.9282
▁decay	-10.9282
▁Male	-10.9287
self	-10.9291
uda	-10.9291
▁Originally	-10.9292
tropic	-10.9293
how	-10.9293
▁diver	-10.9298
▁Flo	-10.93
▁Eight	-10.9303
▁Technology	-10.9304
▁storage	-10.9304
▁Box	-10.9305
▁Row	-10.9316
▁Allier	-10.9321
▁healthy	-10.9321
wide	-10.9321
read	-10.9322
▁nicknamed	-10.9322
▁coins	-10.9323
▁distributed	-10.9327
▁memorial	-10.9327
▁sediment	-10.9327
▁Jefferson	-10.9327
▁pump	-10.9332
▁putting	-10.9343
etti	-10.9343
▁remembered	-10.9349
▁dissolve	-10.9349
▁skeleton	-10.935
▁worst	-10.935
▁Video	-10.935
▁apple	-10.9352
▁contained	-10.9365
▁Warren	-10.9368
▁opposition	-10.9373
▁1906	-10.9377
▁Press	-10.9378
▁RNA	-10.9378
▁Walk	-10.9379
nik	-10.9385
▁Temp	-10.9388
▁Gang	-10.9393
▁Farm	-10.9395
stock	-10.9395
▁Legend	-10.9396
▁Alexandr	-10.9398
▁traveled	-10.9402
▁Advance	-10.9419
▁kidney	-10.9419
▁Mozart	-10.9419
▁120	-10.9419
▁Murray	-10.942
▁Pakistani	-10.9421
gni	-10.9421
▁boil	-10.9423
▁loud	-10.9425
▁bombing	-10.9425
▁(14	-10.9427
▁Argentine	-10.9442
▁Wilhelm	-10.9442
hir	-10.9443
▁granted	-10.9444
▁pulled	-10.9445
ograph	-10.9446
foot	-10.9448
▁Viking	-10.9452
world	-10.9463
▁Metal	-10.9463
▁oxidation	-10.9465
▁injuries	-10.9465
▁1,000	-10.9465
▁47	-10.9471
▁theories	-10.9474
▁Vel	-10.9479
fact	-10.948
▁(12	-10.9483
▁Amazon	-10.9488
▁leaf	-10.9491
▁keeping	-10.9493
ED	-10.9495
▁Sarthe	-10.9495
▁Stand	-10.9506
▁spelled	-10.9507
▁closest	-10.9508
▁Eventually	-10.9511
▁surviving	-10.9511
▁Project	-10.9511
▁Homo	-10.9511
▁Crown	-10.9514
wise	-10.9514
▁Perry	-10.9516
▁Parish	-10.9521
LC	-10.9521
▁Dean	-10.9522
ctic	-10.9526
▁trick	-10.9528
▁Still	-10.9529
▁fewer	-10.9533
century	-10.9533
▁Scientists	-10.9534
▁san	-10.9535
▁88	-10.9535
dig	-10.9535
▁Bour	-10.955
▁Nevada	-10.9558
▁transferred	-10.9559
AT	-10.9559
load	-10.9563
selling	-10.9566
▁Week	-10.9567
Re	-10.9572
▁sentenced	-10.9577
▁featuring	-10.9581
▁surprise	-10.9581
▁rebellion	-10.9581
▁Seattle	-10.9581
▁animation	-10.9581
▁patent	-10.9581
▁audio	-10.9582
▁Nepal	-10.9584
related	-10.9585
▁1907	-10.9586
▁Baron	-10.959
mura	-10.9593
▁followers	-10.9599
▁Add	-10.96
▁Eagle	-10.9605
▁Franco	-10.9612
▁bush	-10.9612
▁dig	-10.9619
▁influential	-10.9628
▁dwarf	-10.9628
▁threatened	-10.9628
▁diesel	-10.9629
▁documentary	-10.9634
▁Had	-10.9637
▁interesting	-10.964
▁Allies	-10.964
link	-10.9642
▁expand	-10.9643
other	-10.9645
▁fail	-10.9653
▁1902	-10.9655
▁arc	-10.9664
tem	-10.9668
▁Universe	-10.9675
▁physicist	-10.9675
▁Flanders	-10.9675
▁Underground	-10.9675
imo	-10.9676
▁continental	-10.9676
▁46	-10.9677
▁random	-10.9677
▁rope	-10.9679
▁performer	-10.968
▁escaped	-10.9683
▁leadership	-10.9684
quin	-10.9687
kon	-10.9687
▁municipal	-10.9694
▁Chess	-10.9696
gam	-10.9697
▁Cemetery	-10.9699
▁WrestleMania	-10.9699
▁confused	-10.9699
▁occupation	-10.9699
▁define	-10.97
▁Nicholas	-10.9722
▁ingredient	-10.9722
▁successfully	-10.9722
▁hatch	-10.9723
▁determined	-10.9724
▁Side	-10.9725
zzo	-10.9726
▁Fan	-10.9733
▁telling	-10.9738
▁Cul	-10.9743
▁neighbor	-10.9746
▁fourteen	-10.9746
▁trading	-10.9748
▁1909	-10.975
▁argued	-10.9766
▁execution	-10.977
▁nucleus	-10.977
▁Century	-10.977
▁literary	-10.977
▁rebel	-10.977
▁Gilbert	-10.9771
▁nerve	-10.9772
20,000	-10.9773
▁Sony	-10.9773
▁polar	-10.9775
cap	-10.9777
▁54	-10.9784
▁Cent	-10.9785
▁Michel	-10.9789
▁Edinburgh	-10.9794
▁Female	-10.9794
oka	-10.9799
▁expect	-10.9807
▁Gray	-10.981
bir	-10.9812
▁Plain	-10.9814
▁Jason	-10.9817
▁Magazine	-10.9818
▁extensive	-10.9818
▁quantum	-10.9818
▁client	-10.9818
▁elder	-10.9818
▁emerge	-10.9821
▁Merc	-10.9821
▁dust	-10.9822
▁minute	-10.9827
▁anime	-10.9829
▁establish	-10.983
dorf	-10.9833
▁constellation	-10.9842
▁facilities	-10.9842
▁hormone	-10.9842
▁lifetime	-10.9842
6,000	-10.9843
▁boundary	-10.9844
▁Salt	-10.9845
▁naval	-10.9846
▁Kor	-10.9855
▁Rico	-10.9859
▁Tsu	-10.9866
▁pregnant	-10.9866
▁thirteen	-10.9866
▁essential	-10.9866
▁Bha	-10.9868
▁Triple	-10.9869
▁digest	-10.9871
▁export	-10.9871
▁fiber	-10.9871
▁Mega	-10.9872
▁Fish	-10.9875
▁Rap	-10.9883
LA	-10.9885
▁budget	-10.989
▁extension	-10.989
▁smooth	-10.989
ibility	-10.989
ER	-10.9893
▁Andrea	-10.9894
▁flowering	-10.9895
box	-10.9897
AM	-10.9898
▁Rem	-10.99
▁bath	-10.9902
▁Luis	-10.9905
ntinu	-10.9913
▁Westminster	-10.9914
▁Olympia	-10.9914
▁senator	-10.9914
600	-10.9915
▁Trophy	-10.9915
cliff	-10.9915
zan	-10.9917
▁viola	-10.9917
▁terrorist	-10.9919
▁Bran	-10.9921
gged	-10.9923
▁trace	-10.9925
▁Reich	-10.9927
▁rib	-10.9929
▁Gon	-10.9929
▁rapid	-10.9933
▁Cycl	-10.9934
▁Beck	-10.9936
▁Luther	-10.9938
▁impossible	-10.9938
▁Cardinal	-10.9938
▁Abbey	-10.9938
▁chapter	-10.9938
▁Oliver	-10.9938
WA	-10.9939
▁Leader	-10.994
▁initial	-10.9948
▁mask	-10.9951
▁Micro	-10.9953
ensis	-10.9959
Mo	-10.9961
▁NASA	-10.9963
▁alliance	-10.9963
▁Lock	-10.9964
▁southeastern	-10.9965
▁Fen	-10.9969
asso	-10.9984
▁grandfather	-10.9987
▁Owen	-10.9987
rage	-10.9988
▁Wallace	-10.9988
▁drawn	-10.999
▁pushed	-10.9992
▁Large	-10.9996
▁Ski	-10.9997
▁Neo	-10.9999
▁Cel	-11.0004
▁Jet	-11.0007
▁struck	-11.0011
▁gases	-11.0013
▁Bryan	-11.0018
▁soap	-11.0022
▁Holland	-11.0023
▁fever	-11.0024
▁Late	-11.0026
▁testing	-11.0029
▁shield	-11.0036
▁Mercury	-11.0036
▁sulfur	-11.0036
▁package	-11.004
▁87	-11.0044
▁Sport	-11.0045
▁extinction	-11.0049
▁raid	-11.0049
▁Geneva	-11.0053
▁rated	-11.0054
▁Yugoslavia	-11.0056
IM	-11.0056
▁jet	-11.0058
▁Canadiens	-11.006
▁Jurassic	-11.006
▁complicated	-11.006
▁apparent	-11.006
▁hidden	-11.006
▁Where	-11.0061
▁agency	-11.0061
▁Racing	-11.0061
▁transition	-11.0062
▁option	-11.0062
▁mention	-11.0063
zh	-11.0065
▁Bond	-11.0066
million	-11.0066
piece	-11.0072
urn	-11.0072
▁prepared	-11.0078
▁Amy	-11.0082
▁Concert	-11.0086
▁Program	-11.0089
▁(13	-11.0091
▁select	-11.0097
▁taxes	-11.0097
▁Robin	-11.0104
agno	-11.0106
▁Affairs	-11.0109
▁Sul	-11.0117
usually	-11.0121
▁hearing	-11.0127
kha	-11.0129
▁Youth	-11.0129
▁achieved	-11.013
▁delay	-11.013
ancy	-11.0131
▁Unit	-11.0133
▁shallow	-11.0135
▁Devon	-11.0137
logist	-11.0139
▁Speed	-11.0152
▁falling	-11.0157
media	-11.0158
▁Kate	-11.0158
▁dictator	-11.0159
▁ancestry	-11.0159
▁mechanics	-11.0159
▁neutral	-11.0159
▁wedding	-11.0159
▁appeal	-11.0159
▁rot	-11.0161
▁northeastern	-11.0162
▁1904	-11.0164
etta	-11.0171
lab	-11.0174
olithic	-11.0174
▁install	-11.0175
▁Ble	-11.018
▁Orleans	-11.0184
▁galaxies	-11.0184
after	-11.0193
▁latter	-11.0194
▁graph	-11.0202
▁focused	-11.0202
▁cluster	-11.0209
▁molecular	-11.0209
▁shelter	-11.0209
▁sacred	-11.0209
▁monkey	-11.021
▁joining	-11.021
▁spacecraft	-11.0211
▁mile	-11.0221
ID	-11.0224
▁Lithuania	-11.0233
▁approved	-11.0233
▁athletic	-11.0233
▁indigenous	-11.0233
▁respond	-11.0233
▁ritual	-11.0233
▁harder	-11.0236
▁monk	-11.0238
▁Gary	-11.024
otto	-11.0242
▁rapidly	-11.025
▁calling	-11.025
front	-11.0253
harm	-11.0255
▁Masa	-11.0255
▁pronounced	-11.0256
▁Blu	-11.026
sometimes	-11.0263
▁Read	-11.0263
rink	-11.0268
▁1861	-11.0268
▁reaches	-11.027
▁convicted	-11.0272
▁Hunter	-11.0273
▁Right	-11.0277
▁82	-11.0284
▁orbital	-11.0284
▁signature	-11.0284
▁covering	-11.0287
▁Fuji	-11.0289
RI	-11.0293
hour	-11.03
▁Baby	-11.0301
▁Horse	-11.0309
▁qualify	-11.0309
▁gradually	-11.0309
▁lizard	-11.0309
▁flew	-11.0309
▁publisher	-11.031
▁serial	-11.031
US	-11.0312
Saint	-11.0313
election	-11.0323
▁govern	-11.0328
▁Norse	-11.0328
gil	-11.0329
hra	-11.0329
▁Hit	-11.0332
▁subsequent	-11.0334
▁Friedrich	-11.0334
▁strict	-11.0334
▁Borough	-11.0335
▁Harold	-11.0338
▁Croatia	-11.0342
▁Sco	-11.0343
▁Hun	-11.0346
suit	-11.0359
▁Nova	-11.0363
about	-11.037
▁otherwise	-11.0374
▁Swan	-11.0377
▁Zeus	-11.0377
▁Buddhism	-11.0384
▁vertical	-11.0385
▁Gallery	-11.0385
8,000	-11.0386
▁divorce	-11.0386
Or	-11.0387
▁Hugo	-11.0396
▁Socialist	-11.0398
▁panel	-11.0398
▁Turner	-11.0405
▁Shiva	-11.0408
▁icon	-11.041
▁Ferdinand	-11.041
▁Hercules	-11.041
▁nervous	-11.041
▁understood	-11.041
▁Thunder	-11.0411
▁Libya	-11.0413
▁Gau	-11.0417
away	-11.0419
▁Soul	-11.0424
▁Get	-11.0424
▁democracy	-11.0435
▁complain	-11.0435
▁beauty	-11.0435
▁invention	-11.0436
continent	-11.0441
▁Nation	-11.0457
▁categories	-11.0461
▁resort	-11.0461
▁ruling	-11.0461
▁arrangement	-11.0464
hiro	-11.0464
▁transmit	-11.0464
▁burning	-11.0466
▁800	-11.0475
▁1896	-11.0475
▁properly	-11.0479
▁turning	-11.0479
▁Secret	-11.0484
▁Cad	-11.0485
▁context	-11.0488
▁Stalin	-11.0494
▁Franz	-11.0495
▁shoulder	-11.0507
▁pit	-11.0508
storm	-11.0509
▁Louise	-11.051
▁fundamental	-11.0512
▁junior	-11.0512
▁qualified	-11.0512
▁essay	-11.0512
▁evolutionary	-11.0518
▁raced	-11.0522
posed	-11.0525
▁Por	-11.0528
▁Along	-11.0534
▁Sai	-11.0535
▁cm	-11.0536
▁unless	-11.0537
▁Lloyd	-11.0538
▁Dublin	-11.0538
▁housing	-11.0538
▁tiger	-11.0538
▁Maur	-11.054
▁labor	-11.0541
▁desire	-11.0542
▁terra	-11.0542
▁breeding	-11.0543
osphere	-11.0545
▁Mali	-11.0546
▁flash	-11.0546
▁belonged	-11.0547
▁crossing	-11.0554
▁Montgomery	-11.0563
▁destination	-11.0563
▁portrait	-11.0563
▁Sindh	-11.0565
▁loose	-11.0568
▁thrown	-11.057
▁neutron	-11.0589
▁exposed	-11.059
▁robot	-11.0595
▁invest	-11.06
▁carries	-11.06
rock	-11.0603
▁attempted	-11.0605
eous	-11.0608
▁currency	-11.0615
▁Gustav	-11.0616
▁credited	-11.0617
▁Nine	-11.0618
▁Food	-11.0623
stand	-11.0626
▁sale	-11.0626
▁Oz	-11.0626
agh	-11.063
▁beaches	-11.0635
▁worm	-11.0636
▁invad	-11.0639
▁defensive	-11.0641
▁industries	-11.0641
▁turtle	-11.0641
▁Hudson	-11.0641
▁automobile	-11.0641
▁quiet	-11.0642
▁Vincent	-11.0643
▁Lost	-11.0645
▁Organ	-11.065
▁viruses	-11.0667
▁generate	-11.0667
▁Airways	-11.0668
▁Spirit	-11.0668
▁Vin	-11.0668
▁inducted	-11.0669
▁Wy	-11.0672
▁traditionally	-11.0673
IP	-11.0683
▁reacting	-11.0689
▁81	-11.069
▁elector	-11.0693
▁nurse	-11.0694
direct	-11.0695
▁Mann	-11.0699
▁demo	-11.0699
▁Carson	-11.071
▁100,000	-11.0711
▁crossed	-11.0718
▁Stewart	-11.0719
▁enzyme	-11.0719
▁membrane	-11.0719
▁Cornwall	-11.072
▁withdraw	-11.0722
▁humid	-11.0722
▁Walker	-11.0726
▁strongest	-11.0738
▁Clay	-11.074
▁Kil	-11.074
▁Belarus	-11.0746
▁swim	-11.0747
▁inventor	-11.0752
▁Fat	-11.0754
▁throat	-11.0772
▁assigned	-11.0772
▁secure	-11.0773
▁Tree	-11.0774
▁1981)	-11.0776
meaning	-11.0781
▁apartment	-11.0785
▁Marsh	-11.079
▁1979)	-11.0798
▁Ukrainian	-11.0798
▁Plymouth	-11.0798
▁Ernest	-11.0799
▁Strat	-11.0803
▁originated	-11.0806
▁Test	-11.0807
hole	-11.0821
▁explanation	-11.0825
▁widow	-11.0825
▁Avenue	-11.0825
▁companion	-11.0825
▁amateur	-11.0825
▁Ballet	-11.0827
▁Glo	-11.0833
gawa	-11.0838
winning	-11.0843
▁anniversary	-11.0851
▁practical	-11.0851
▁Actress	-11.0854
▁feud	-11.0856
▁reward	-11.0857
▁northwestern	-11.0857
▁passage	-11.0864
▁Roy	-11.0867
loid	-11.0876
▁recognize	-11.0876
▁manufacturer	-11.0877
▁Amsterdam	-11.0878
▁policies	-11.0878
▁widespread	-11.0878
▁vitamin	-11.0878
▁silk	-11.088
▁none	-11.0887
▁Protect	-11.0887
▁Venus	-11.0891
▁Cour	-11.0893
▁trap	-11.0893
▁Jonathan	-11.0905
▁Language	-11.0905
▁Santiago	-11.0905
▁fifty	-11.0905
▁crust	-11.0905
bank	-11.0909
plant	-11.0916
▁1899	-11.0921
▁Flight	-11.0921
▁float	-11.0922
▁Deep	-11.0924
AD	-11.0929
▁Basketball	-11.0931
▁Norfolk	-11.0931
▁rebuilt	-11.0931
▁somewhat	-11.0931
▁Kyoto	-11.0931
▁suspect	-11.0932
▁Bruins	-11.0933
▁1983)	-11.0936
▁maker	-11.0937
quest	-11.0938
▁tied	-11.0939
▁Trust	-11.094
▁holy	-11.0945
scope	-11.0947
▁wound	-11.095
▁1850	-11.0958
▁Business	-11.0958
▁Urban	-11.096
7,000	-11.096
▁Nigeria	-11.096
▁Esp	-11.0962
▁Monday	-11.0963
▁flour	-11.0963
▁Without	-11.0965
▁Race	-11.0976
cup	-11.0983
▁warrior	-11.0985
▁Madison	-11.0986
▁rush	-11.0987
▁Than	-11.1002
▁tourism	-11.1003
▁chip	-11.1003
▁retain	-11.1005
▁Kur	-11.1009
▁absolute	-11.1012
▁cabinet	-11.1012
▁punishment	-11.1012
▁babies	-11.1012
▁empty	-11.1012
▁Defense	-11.1012
▁Hope	-11.1013
▁voltage	-11.1013
▁Nancy	-11.1017
▁Devil	-11.102
▁Romanian	-11.1034
utonomous	-11.1039
▁nephew	-11.1039
▁opportunity	-11.1039
▁sixteen	-11.1039
▁Seoul	-11.1039
▁exclusive	-11.1039
igny	-11.104
▁terminal	-11.104
▁Vir	-11.106
▁profit	-11.1061
▁Maha	-11.1062
▁Chancellor	-11.1066
▁Community	-11.1066
▁Through	-11.1066
▁shortened	-11.1067
▁enforce	-11.1068
▁integer	-11.1068
▁cloth	-11.1068
▁DJ	-11.1074
▁suddenly	-11.1075
▁expressed	-11.1083
▁Burg	-11.1087
▁Buffalo	-11.1093
▁Baptist	-11.1093
▁Energy	-11.1093
▁shrub	-11.1093
plural	-11.1093
▁commit	-11.1094
▁mild	-11.1096
ledge	-11.1098
hawk	-11.11
▁Sym	-11.1101
▁Danny	-11.1102
wald	-11.1111
▁delivered	-11.1113
▁Benedict	-11.1121
▁chicken	-11.1121
▁prisoner	-11.1126
▁faced	-11.1133
▁Marx	-11.1138
suke	-11.1139
▁goaltender	-11.1148
▁hypo	-11.1148
▁brick	-11.115
▁mature	-11.1156
ential	-11.1158
▁fastest	-11.1158
▁brief	-11.116
▁happening	-11.1162
▁Command	-11.1166
▁Que	-11.117
▁Independent	-11.1175
▁investigation	-11.1175
▁loyal	-11.1175
▁Getty	-11.1178
▁Naka	-11.1181
▁Kir	-11.1182
▁replacement	-11.1183
▁360	-11.1184
▁tag	-11.1187
▁alien	-11.1188
▁pill	-11.1194
▁existing	-11.1196
owski	-11.1197
▁operator	-11.1199
vik	-11.1202
▁Princip	-11.1203
▁legislature	-11.1203
▁external	-11.1203
▁scheme	-11.1203
▁riot	-11.1203
▁Chamber	-11.1206
▁suffer	-11.1212
▁praised	-11.1217
▁interpret	-11.1219
▁Rolling	-11.1225
fro	-11.1226
riff	-11.123
▁martial	-11.123
▁homosexual	-11.123
▁knee	-11.1232
▁factories	-11.1233
odont	-11.124
▁Cab	-11.1241
▁Tech	-11.1249
▁dense	-11.1257
▁controversy	-11.1258
▁mirror	-11.1258
▁Edmund	-11.1258
▁smart	-11.1258
▁favorite	-11.1261
titude	-11.127
▁Haute	-11.127
▁1895	-11.1271
making	-11.1275
▁Vende	-11.1276
▁Cali	-11.1277
▁Mala	-11.1277
▁Mall	-11.1279
▁Calvin	-11.1279
▁bay	-11.1282
▁Morocco	-11.1286
▁temporary	-11.1286
▁collaborat	-11.1286
▁nitrogen	-11.1286
▁Pole	-11.1286
bun	-11.1289
▁stood	-11.1289
aria	-11.1295
▁250	-11.1297
▁fled	-11.1303
amine	-11.1305
▁hunter	-11.1311
▁Thompson	-11.1313
▁identical	-11.1313
▁slope	-11.1314
▁binary	-11.1317
▁notably	-11.1327
elia	-11.1333
▁variant	-11.1341
▁combine	-11.1346
▁Canton	-11.1349
stream	-11.1351
▁logo	-11.1356
▁1889	-11.1359
▁Hur	-11.1362
▁Marco	-11.1363
▁bag	-11.1363
▁Ethiopia	-11.1369
▁Support	-11.1369
▁battery	-11.1369
▁Watson	-11.1369
▁Osaka	-11.137
▁flavor	-11.137
▁assault	-11.1371
▁entry	-11.1372
▁Mori	-11.1377
rrh	-11.1385
▁formally	-11.1396
▁Cruz	-11.1396
▁filter	-11.1397
▁Eye	-11.1397
▁Paulo	-11.1398
▁playoffs	-11.1398
▁tight	-11.1403
▁everyday	-11.1407
▁Def	-11.1414
▁initially	-11.1415
▁analog	-11.142
▁runner	-11.1421
ppa	-11.1422
▁spelling	-11.1423
▁agricultural	-11.1425
▁bottle	-11.1425
▁Rachel	-11.1425
30,000	-11.1426
▁Kirk	-11.1426
▁dissolved	-11.1426
kawa	-11.1431
emia	-11.1432
▁achievement	-11.1436
▁Hammer	-11.1437
▁dimension	-11.1445
▁pale	-11.1447
hausen	-11.1452
▁abandoned	-11.1453
▁helicopter	-11.1453
▁recognition	-11.1453
▁Adolf	-11.1454
▁Heaven	-11.1454
▁boot	-11.1455
▁Collins	-11.1456
▁Airbus	-11.1456
▁Link	-11.1463
▁friendly	-11.1469
▁Half	-11.1469
▁Route	-11.1472
igan	-11.1477
▁clan	-11.1478
▁database	-11.1482
dynamic	-11.1482
▁jewel	-11.1483
▁crack	-11.1485
▁Hamburg	-11.1485
▁600	-11.1486
▁promise	-11.1487
lift	-11.1488
▁Bobby	-11.1489
▁Maple	-11.1489
▁Conf	-11.1493
▁Using	-11.1498
▁engaged	-11.1498
nell	-11.1501
▁Category	-11.151
▁dominant	-11.151
▁Pearl	-11.1511
▁Algeria	-11.1512
▁permission	-11.1513
▁kit	-11.1513
▁Lisa	-11.1514
▁premiered	-11.1514
▁bound	-11.1519
station	-11.1527
green	-11.1531
▁killer	-11.1532
▁obtained	-11.1533
▁promised	-11.1534
▁Total	-11.1537
▁Athletic	-11.1538
▁Glasgow	-11.1538
▁volunteer	-11.1538
▁convince	-11.1538
▁Lahore	-11.1539
▁Alliance	-11.1539
▁Heavyweight	-11.1539
▁Isaac	-11.1539
▁Gui	-11.1539
name	-11.1549
▁Java	-11.1554
▁Beat	-11.1561
▁Magic	-11.1561
▁Zoo	-11.1562
▁sheet	-11.1564
▁Luxembourg	-11.1567
▁refuge	-11.1567
▁flies	-11.1567
▁varies	-11.1572
▁geographical	-11.158
second	-11.1582
IV	-11.1583
▁1898	-11.1584
▁Kurt	-11.1584
▁Croatian	-11.1587
▁reveal	-11.1589
▁ninth	-11.1596
▁Dalmatia	-11.1596
▁Grove	-11.1605
▁Break	-11.1608
horn	-11.1618
▁repeat	-11.1619
▁achieve	-11.1619
▁gall	-11.1621
▁pioneer	-11.1624
▁Drama	-11.1625
▁Estonia	-11.1627
▁patron	-11.1627
IN	-11.1629
▁Monster	-11.1638
▁dramatic	-11.1638
▁gap	-11.1638
illon	-11.1643
▁mammal	-11.1645
800	-11.1648
▁Edge	-11.1648
▁Cuban	-11.1651
▁concrete	-11.1653
▁communicate	-11.1653
▁domain	-11.1653
▁Wiki	-11.1654
▁tongue	-11.1655
▁lens	-11.1659
▁argue	-11.1659
▁criticism	-11.166
▁Lamb	-11.1664
▁Mile	-11.1671
▁Bomb	-11.168
▁Ottawa	-11.1682
▁Similar	-11.1682
▁protocol	-11.1682
▁Reserve	-11.1682
▁isotope	-11.1682
▁eagle	-11.1682
▁Gregory	-11.1682
▁sector	-11.1685
▁Sikh	-11.1687
four	-11.1691
▁Homer	-11.1692
▁Mou	-11.1698
▁carbonate	-11.1705
▁Picture	-11.1706
▁Nuclear	-11.1711
▁ECW	-11.1711
▁cotton	-11.1711
▁Isabel	-11.1711
▁afterwards	-11.1713
▁Thing	-11.1715
▁crab	-11.1715
▁demon	-11.1717
▁quote	-11.1718
▁Kenya	-11.1721
▁minority	-11.1724
▁Math	-11.1724
▁justice	-11.1724
▁exhibit	-11.1726
▁relation	-11.1734
▁enjoyed	-11.1737
▁manuscript	-11.174
▁decoration	-11.174
▁linguist	-11.174
▁missile	-11.174
▁proportion	-11.174
▁honey	-11.1744
▁Classical	-11.1746
▁rh	-11.1749
▁larvae	-11.1751
▁Penn	-11.1766
▁Thames	-11.1769
▁Pedro	-11.1769
▁Emma	-11.177
▁rubber	-11.177
▁pepper	-11.1771
ifer	-11.1771
▁Bah	-11.1774
▁cargo	-11.178
▁Cran	-11.1789
▁lover	-11.1795
▁rejected	-11.1796
▁moist	-11.1797
▁inherited	-11.1798
▁concentrate	-11.1798
▁Diamond	-11.1798
▁representing	-11.1804
▁attracted	-11.1806
▁tract	-11.1806
▁Local	-11.1806
▁manner	-11.1809
hang	-11.1823
▁geometry	-11.1827
▁Aztec	-11.1827
▁reputation	-11.1827
▁witness	-11.1827
▁Guild	-11.1828
wolf	-11.1829
comb	-11.184
▁sac	-11.1842
▁Pink	-11.1848
▁fairly	-11.1851
▁potassium	-11.1856
▁residence	-11.1856
▁squad	-11.1856
▁restored	-11.1857
▁meteor	-11.1857
▁leather	-11.1858
▁costume	-11.186
▁sitting	-11.186
▁Classic	-11.186
▁dying	-11.1861
▁lessons	-11.1869
▁Nile	-11.1877
▁Bert	-11.1878
▁Southeast	-11.1878
▁reverse	-11.1879
▁Beijing	-11.1886
▁Neptune	-11.1886
▁democratic	-11.1886
▁introduction	-11.1886
▁measuring	-11.1886
▁crisis	-11.1886
▁Ralph	-11.1886
▁retreat	-11.1887
▁Nicola	-11.1895
▁VII	-11.1895
▁supporters	-11.1897
▁Marc	-11.1903
para	-11.1913
▁Baldwin	-11.1915
▁railroad	-11.1915
▁Congo	-11.1923
▁preserved	-11.1932
▁Geoffrey	-11.1945
▁mercury	-11.1945
▁sacrifice	-11.1945
▁Macedonia	-11.1945
▁chapel	-11.1945
▁horizontal	-11.1945
RO	-11.195
▁container	-11.1955
▁gray	-11.1959
▁Woman	-11.1967
▁coup	-11.197
von	-11.197
▁Tehsil	-11.1975
▁conservation	-11.1975
▁presidency	-11.1975
▁subspecies	-11.1975
▁wheat	-11.1975
▁Wessex	-11.1975
▁Famous	-11.1975
▁remix	-11.1975
went	-11.1979
▁debt	-11.1979
cum	-11.1982
▁Come	-11.1983
▁monarchy	-11.1991
▁Larry	-11.1992
▁duty	-11.1996
lead	-11.2002
▁reducing	-11.2004
▁cinema	-11.2005
▁noticed	-11.2009
▁noun	-11.2016
▁adopt	-11.203
▁abstract	-11.2034
▁Einstein	-11.2034
▁pupil	-11.2034
▁algae	-11.2034
▁scoring	-11.2034
▁quit	-11.2041
cross	-11.2044
▁Rule	-11.2047
▁incorporated	-11.2048
▁Yar	-11.2052
▁improvement	-11.2058
▁experienced	-11.206
▁Archbishop	-11.2064
▁assembly	-11.2064
▁Nixon	-11.2064
▁Cameron	-11.2064
▁Otto	-11.2065
▁usage	-11.2073
▁reporter	-11.2074
▁researchers	-11.2076
▁1865	-11.2079
▁purchased	-11.2083
▁Executive	-11.2094
▁contemporary	-11.2094
▁societies	-11.2094
▁Comedy	-11.2097
▁compress	-11.2098
▁duck	-11.2101
▁Greg	-11.2101
▁Arabian	-11.2105
▁interaction	-11.2111
▁briefly	-11.2111
▁discussion	-11.2117
fur	-11.2119
borg	-11.212
▁lamp	-11.2124
▁Giovanni	-11.2124
eastern	-11.2128
▁Hugh	-11.2128
▁clearly	-11.2129
ground	-11.2134
▁Canal	-11.2136
▁Herbert	-11.2137
▁Full	-11.2142
▁Dodge	-11.2143
▁premier	-11.215
▁Currently	-11.2155
▁coordinate	-11.2155
▁Control	-11.2155
▁radioactive	-11.2156
▁hardware	-11.2158
▁Village	-11.216
▁Gru	-11.2164
▁golf	-11.2166
▁sovereign	-11.2185
▁Shadow	-11.2185
wear	-11.2185
▁voting	-11.2185
▁Leeds	-11.2188
icide	-11.2205
▁fee	-11.2209
plane	-11.221
▁entertain	-11.2214
▁artillery	-11.2215
▁Kurdish	-11.2215
▁implement	-11.2215
▁trigger	-11.2215
▁fungi	-11.2216
▁specifically	-11.222
▁Sparta	-11.2222
▁cash	-11.2223
▁pray	-11.2232
▁rider	-11.2236
named	-11.2242
▁Maz	-11.2243
▁diabetes	-11.2246
▁universal	-11.2246
▁Beethoven	-11.2246
▁Abdul	-11.2246
▁Sierra	-11.2246
▁Sultan	-11.2247
shore	-11.2248
▁Spider	-11.225
▁ideal	-11.2252
▁Laura	-11.2265
stadt	-11.2271
▁Anglican	-11.2276
▁Journal	-11.2276
▁monastery	-11.2276
▁providing	-11.2276
▁Deputy	-11.2276
▁emotional	-11.2276
▁charity	-11.2276
▁Kiss	-11.2277
▁Siberia	-11.2277
▁slide	-11.2278
▁Bella	-11.2285
▁Portland	-11.2293
▁Presidential	-11.2298
▁chemist	-11.2303
▁refus	-11.2306
▁Nickelodeon	-11.2307
▁explosive	-11.2307
▁penalty	-11.2307
▁1.5	-11.2309
▁installed	-11.2319
▁latest	-11.232
▁Cena	-11.2323
plex	-11.2323
▁Victorian	-11.2331
▁controller	-11.2331
▁provincial	-11.2338
▁Gothic	-11.2338
▁stamp	-11.2338
▁comfort	-11.2338
▁corn	-11.234
▁transportation	-11.2355
member	-11.2357
▁eliminated	-11.2364
▁hemisphere	-11.2369
▁Dennis	-11.2369
▁Audi	-11.2377
▁Crow	-11.2378
▁Never	-11.238
▁Mora	-11.2384
▁Hardy	-11.239
▁Brig	-11.2397
▁Evolution	-11.24
▁Jennifer	-11.24
▁subdivision	-11.24
▁Administration	-11.24
▁McCartney	-11.24
▁triangle	-11.24
▁ghost	-11.24
▁abortion	-11.24
▁Eddie	-11.2403
▁reef	-11.2409
▁1864	-11.2412
▁novelist	-11.2413
group	-11.2427
▁rainforest	-11.2431
▁interact	-11.2431
▁descendants	-11.2431
▁parasite	-11.2432
▁rub	-11.2434
▁Neil	-11.2437
Com	-11.2443
▁begun	-11.2444
▁Lucy	-11.2444
▁designated	-11.2449
▁Mongolia	-11.245
▁Delta	-11.2451
▁spectrum	-11.2462
▁Circle	-11.2462
▁Judaism	-11.2462
▁warfare	-11.2462
▁cipher	-11.2462
▁Tasmania	-11.2462
▁Acc	-11.2463
▁gross	-11.2463
▁Number	-11.2464
▁VIII	-11.2469
▁Commander	-11.2472
▁Thorn	-11.2475
▁1863	-11.2476
bourne	-11.2477
▁grant	-11.2479
▁manga	-11.248
▁mad	-11.2483
▁Naval	-11.2484
avia	-11.2486
▁Greatest	-11.2489
▁Disc	-11.2492
▁Jacques	-11.2493
▁McMahon	-11.2493
▁advice	-11.2493
▁joke	-11.2495
▁anchor	-11.2496
▁therapy	-11.2498
▁Want	-11.2499
▁Type	-11.25
▁plum	-11.2501
▁Hinduism	-11.2503
▁Krist	-11.2505
▁Hughes	-11.2508
▁1897	-11.251
two	-11.251
▁YouTube	-11.2524
▁calcium	-11.2524
▁medication	-11.2524
▁Lebanon	-11.2524
▁manufacture	-11.2526
▁Matsu	-11.2526
pm	-11.2527
▁teen	-11.2528
▁Against	-11.2529
▁Lauren	-11.2529
▁Pale	-11.2531
▁anywhere	-11.2532
▁Michelle	-11.2534
▁interpretation	-11.2537
tempo	-11.2538
agin	-11.2541
▁Chapel	-11.2543
▁1892	-11.2545
▁1840	-11.255
▁Meanwhile	-11.2556
▁harvest	-11.2556
▁literally	-11.2556
▁silent	-11.2556
▁Elliot	-11.2556
▁Hiro	-11.2559
▁Pha	-11.2562
▁Craig	-11.2564
▁McCo	-11.2565
▁loop	-11.2569
▁1862	-11.2569
new	-11.2585
▁Manitoba	-11.2587
▁endangered	-11.2587
▁excellent	-11.2587
▁lecture	-11.2587
▁magnitude	-11.2587
▁Mayenne	-11.2587
▁wavelength	-11.2588
▁Adult	-11.259
▁Tampa	-11.2591
osaurs	-11.2592
▁exam	-11.2598
▁psycho	-11.2602
stick	-11.2604
▁1893	-11.2605
▁scheduled	-11.2606
▁rough	-11.2606
▁dirt	-11.2608
▁bowl	-11.2611
largest	-11.2611
▁Money	-11.2613
▁regime	-11.2618
▁minimum	-11.2619
▁venom	-11.2619
▁Multi	-11.262
▁mice	-11.2626
▁humor	-11.2631
▁Bag	-11.2631
▁1888	-11.2632
▁Performance	-11.2651
▁efficient	-11.2651
▁populated	-11.2651
▁Studies	-11.2651
▁Bosnia	-11.2652
▁Murphy	-11.2652
▁Flash	-11.266
▁Alpha	-11.2667
rgy	-11.2668
▁Word	-11.2671
▁Minor	-11.2673
▁Planet	-11.2673
official	-11.2676
▁Harbor	-11.2676
▁favour	-11.268
▁Adelaide	-11.2683
▁Gospel	-11.2683
▁valuable	-11.2683
▁Pradesh	-11.2683
▁puppet	-11.2683
▁statistics	-11.2683
▁prophet	-11.2683
▁Aaron	-11.2684
▁modified	-11.2684
▁palm	-11.2685
▁occasionally	-11.2685
▁pest	-11.2687
▁Alberta	-11.2689
▁till	-11.2691
▁skier	-11.2696
▁Mercia	-11.2698
▁Mina	-11.2699
▁moth	-11.2701
▁axis	-11.2709
▁Dale	-11.2712
ccompanied	-11.2715
▁browser	-11.2715
▁pregnancy	-11.2715
▁Psycho	-11.2715
▁cancelled	-11.2715
Star	-11.2716
▁navy	-11.2716
▁rising	-11.2716
▁Entry	-11.2717
▁biologist	-11.2718
space	-11.2723
▁Aube	-11.2725
▁Brain	-11.2745
▁Survivor	-11.2747
▁cemetery	-11.2747
▁receiving	-11.2747
▁Chairman	-11.2747
▁involving	-11.2747
▁Raymond	-11.2747
▁odd	-11.275
▁grandson	-11.2753
dimensional	-11.2756
▁governed	-11.2759
▁Nature	-11.2764
cant	-11.2771
▁reproduction	-11.2779
▁Screen	-11.2779
▁Naples	-11.2779
buck	-11.2779
▁shopping	-11.2781
▁Vince	-11.2794
▁bug	-11.2805
carbon	-11.2808
▁Mitchell	-11.2811
▁astronomy	-11.2811
▁corporation	-11.2811
▁hydroxide	-11.2811
▁Babylon	-11.2812
▁Step	-11.2813
▁Fisher	-11.2814
▁cutting	-11.2819
▁Marg	-11.2821
1/2	-11.2824
▁1885	-11.2826
▁Indus	-11.2827
people	-11.2837
▁Dame	-11.2842
▁negotiat	-11.2843
▁Manuel	-11.2844
▁Richmond	-11.2844
▁anymore	-11.2856
▁capable	-11.2856
aught	-11.2864
▁instant	-11.2867
bell	-11.2868
▁antibiotic	-11.2876
▁Speaker	-11.2876
▁Ardche	-11.2876
▁Bueno	-11.2877
▁conquest	-11.2879
▁percentage	-11.2883
▁secretary	-11.2887
▁Foster	-11.2888
▁Malay	-11.2889
▁Tsar	-11.2889
▁moderate	-11.2903
▁recipient	-11.2908
▁eldest	-11.2908
▁disturb	-11.2908
▁facing	-11.2909
ennial	-11.2909
▁Vietnamese	-11.291
hof	-11.2914
▁Moses	-11.292
▁1848	-11.2921
dependent	-11.2934
▁Fellow	-11.2941
▁investigate	-11.2941
▁pollution	-11.2942
▁Prague	-11.2944
▁constitutional	-11.2946
▁Sudan	-11.2946
▁prepare	-11.2951
▁1871	-11.2956
▁Declaration	-11.2974
▁hypothesis	-11.2974
▁rugby	-11.2974
▁Ghost	-11.2974
▁1830	-11.2974
▁pretend	-11.2975
▁Stein	-11.2977
▁Denver	-11.2978
▁peaceful	-11.2978
▁Antarctica	-11.2985
▁alter	-11.2992
▁Bundesliga	-11.3007
▁Byzantine	-11.3007
▁equator	-11.3007
▁thunder	-11.3007
▁crater	-11.3007
▁Campbell	-11.3007
▁fairy	-11.3009
▁duties	-11.3009
▁armour	-11.3009
▁rotation	-11.3015
▁encourage	-11.3016
▁coral	-11.3019
▁1891	-11.3022
music	-11.3027
▁consumer	-11.303
album	-11.3035
▁Morris	-11.3036
▁hum	-11.3037
▁Track	-11.3038
▁neither	-11.304
▁virtual	-11.304
▁Frankfurt	-11.304
▁abolished	-11.304
▁chord	-11.3043
free	-11.3044
▁Freud	-11.3045
bill	-11.3046
▁McCa	-11.3051
▁Chilean	-11.3056
walk	-11.3063
drama	-11.3073
▁Slovenia	-11.3073
▁Khyber	-11.3073
▁Sweet	-11.3073
▁Bahamas	-11.3073
▁insurance	-11.3073
▁girlfriend	-11.3073
▁Trail	-11.3076
▁Edgar	-11.308
▁artistic	-11.3082
▁Sign	-11.3092
▁Report	-11.3096
▁encouraged	-11.3096
▁Todd	-11.3103
▁Mind	-11.3104
▁Uruguay	-11.3106
▁intellectual	-11.3106
▁manufacturing	-11.3106
▁Warsaw	-11.3107
cellular	-11.3108
▁1500	-11.3108
▁erect	-11.3111
▁boss	-11.3116
▁sink	-11.3116
brook	-11.3131
▁payment	-11.3137
▁merchant	-11.3139
▁diagram	-11.3139
▁Jammu	-11.314
▁publishing	-11.3141
high	-11.3144
▁Somali	-11.3145
▁suitable	-11.3146
▁honorary	-11.3149
▁lord	-11.3149
▁Midland	-11.3151
▁Scr	-11.3157
▁Troy	-11.316
▁Rice	-11.3168
▁Bermuda	-11.3173
▁poverty	-11.3173
▁Calgary	-11.3173
▁shirt	-11.3173
▁import	-11.3173
▁basal	-11.3176
nick	-11.3176
▁bold	-11.3185
lived	-11.3185
▁shall	-11.3191
▁volcanoes	-11.3198
▁certified	-11.3206
▁limestone	-11.3206
▁Delaware	-11.3206
▁Nashville	-11.3206
▁Cabinet	-11.3206
▁diamond	-11.3206
▁embryo	-11.3206
▁afternoon	-11.3207
▁quark	-11.3207
▁sunlight	-11.3209
▁stab	-11.3212
▁Tyler	-11.3213
▁predator	-11.322
▁Pack	-11.3229
▁Staff	-11.323
▁marsh	-11.3231
mill	-11.3235
▁registered	-11.3236
▁Boris	-11.3237
▁iPod	-11.324
▁replacing	-11.324
▁penguin	-11.324
▁massacre	-11.324
▁heritage	-11.324
▁Contest	-11.324
▁swimmer	-11.3242
▁swamp	-11.3242
▁Officer	-11.3251
▁wider	-11.326
▁pirate	-11.3261
▁Rapid	-11.3264
▁construct	-11.3267
versus	-11.3269
▁offensive	-11.3274
▁advisor	-11.3274
▁midfielder	-11.3274
▁purple	-11.3274
▁Traditional	-11.3274
▁burial	-11.3274
▁drove	-11.3274
▁tetra	-11.3275
▁arrow	-11.3275
▁crush	-11.3276
▁discoveries	-11.3278
▁Rush	-11.328
▁Panama	-11.328
▁farther	-11.3282
▁recognised	-11.3285
▁habit	-11.3287
▁downtown	-11.3288
▁Mut	-11.3298
child	-11.33
▁Doll	-11.3301
▁Fernando	-11.3308
▁arrival	-11.3308
▁Bahrain	-11.3308
▁infinite	-11.3308
▁heaven	-11.3309
▁interface	-11.3309
▁weekend	-11.3312
▁Tommy	-11.3313
▁Sister	-11.3314
▁Petr	-11.3322
lmost	-11.3334
often	-11.3336
▁photon	-11.3336
▁abbreviation	-11.3342
▁zinc	-11.3342
▁competing	-11.3342
▁barrel	-11.3345
▁theorem	-11.3349
▁dozen	-11.3354
▁1881	-11.3355
▁Linda	-11.3359
▁Georg	-11.336
elected	-11.3367
West	-11.3369
season	-11.3375
▁Fleet	-11.3376
boat	-11.3376
▁Maxim	-11.338
minute	-11.3381
▁Normal	-11.3381
▁noise	-11.3384
▁1859	-11.3393
▁topics	-11.3394
▁chase	-11.3402
quarter	-11.3408
▁relegated	-11.341
▁doubt	-11.3411
▁chronic	-11.3411
▁Erik	-11.3413
▁thor	-11.3436
▁Sig	-11.3439
▁Round	-11.344
▁Vladimir	-11.3445
▁acquired	-11.3445
▁advertising	-11.3445
▁Palestine	-11.3445
▁adjust	-11.3445
▁elevation	-11.3445
▁Elector	-11.3445
▁Daily	-11.3445
▁boundaries	-11.3445
▁Cell	-11.3465
▁Leonard	-11.3468
language	-11.3477
▁fragment	-11.3479
▁veteran	-11.3479
▁encounter	-11.3479
▁USSR	-11.3479
▁sustain	-11.3479
▁laboratory	-11.3479
▁lying	-11.3481
▁Vermont	-11.3482
▁Tibetan	-11.3486
text	-11.3489
▁outdoor	-11.349
▁Keith	-11.3497
▁spice	-11.3497
French	-11.3512
▁concerto	-11.3512
▁Crystal	-11.3514
▁Kurdistan	-11.3514
▁tributary	-11.3514
▁puzzle	-11.3514
▁sulfate	-11.3514
▁Nikola	-11.3514
▁transmission	-11.3515
▁Lightning	-11.3516
▁Singh	-11.3529
flat	-11.3541
▁Bau	-11.3547
▁Scandinavia	-11.3548
▁crocodile	-11.3548
▁submarine	-11.3548
▁Orlando	-11.3548
▁drunk	-11.3548
▁Warrior	-11.3548
▁Claude	-11.355
grave	-11.3558
▁losses	-11.3561
▁viewers	-11.3567
wit	-11.357
▁synthesis	-11.3583
▁tributaries	-11.3583
▁ultimate	-11.3583
▁isolated	-11.3584
▁Design	-11.3584
▁Comics	-11.3585
▁Montana	-11.359
▁reproduce	-11.3594
▁Greenland	-11.3606
▁grammar	-11.3618
▁Harvey	-11.3618
▁succeed	-11.3618
▁Colony	-11.3618
▁Cecil	-11.3619
▁temperate	-11.3619
▁Trent	-11.3621
1,000	-11.3629
▁Ground	-11.363
▁Lucas	-11.3631
▁Mau	-11.3645
▁Fran	-11.3648
▁flame	-11.3652
▁probability	-11.3653
▁Bristol	-11.3653
▁monitor	-11.3653
▁Luigi	-11.3653
▁tobacco	-11.3653
▁Lead	-11.3655
▁momentum	-11.3661
▁upset	-11.3663
▁Chuck	-11.3664
▁Original	-11.368
wheel	-11.3688
▁Aargau	-11.3688
▁BAFTA	-11.3688
▁Episode	-11.3688
▁survival	-11.3688
▁rabbit	-11.3688
▁genome	-11.3689
▁Ridge	-11.3694
▁mouse	-11.3694
▁Casa	-11.37
▁Witch	-11.3707
▁1894	-11.3708
▁inject	-11.371
▁mega	-11.3714
▁Nebraska	-11.3724
▁electromagnetic	-11.3724
▁strategy	-11.3724
▁regulation	-11.3724
▁remote	-11.3724
▁Donkey	-11.3726
▁eighteen	-11.3726
▁Shinto	-11.3736
▁1857	-11.3739
▁Tibet	-11.3753
▁Twin	-11.3759
▁Authority	-11.3759
▁Czechoslovakia	-11.3759
▁Sebastian	-11.3759
▁ambassador	-11.3759
▁pyramid	-11.3759
▁vowel	-11.3759
written	-11.3759
▁Tang	-11.3763
▁1867	-11.3777
▁Mini	-11.3781
tique	-11.3788
▁Turn	-11.3791
▁Philharmonic	-11.3795
▁entitled	-11.3795
▁imperial	-11.3795
▁intelligent	-11.3795
▁obvious	-11.3795
▁primitive	-11.3795
▁thriller	-11.3795
▁Capitol	-11.3795
▁CPU	-11.3795
500,000	-11.3795
▁barrier	-11.3795
▁Culture	-11.3796
scale	-11.3796
▁clinic	-11.3796
▁guess	-11.3798
▁Scout	-11.3802
▁Carey	-11.382
▁Buddha	-11.3831
▁villain	-11.3831
▁hub	-11.3831
European	-11.3831
▁Bronze	-11.3832
▁travelling	-11.3848
▁Northwest	-11.3849
▁Baden	-11.3853
▁BCE	-11.3863
▁iPhone	-11.3866
▁jersey	-11.3866
▁physician	-11.3866
▁overseas	-11.3867
▁Saxe	-11.3867
▁blade	-11.3869
▁assassination	-11.387
course	-11.3872
▁socialist	-11.388
▁1876	-11.3885
virus	-11.3889
▁Infantry	-11.3902
▁Edmonton	-11.3902
▁drew	-11.3902
▁Defence	-11.3904
▁rays	-11.3919
▁Mission	-11.392
▁yards	-11.3923
▁glu	-11.3926
▁reactor	-11.3934
▁Aberdeen	-11.3938
▁Ludwig	-11.3938
▁Versailles	-11.3938
▁scandal	-11.3938
▁Austen	-11.3939
▁Cava	-11.3942
▁Springfield	-11.3942
▁Bloom	-11.3943
▁Weather	-11.3943
▁Digital	-11.3975
▁Mayflower	-11.3975
▁responsibility	-11.3975
▁situated	-11.3975
▁denomination	-11.3975
▁Hydro	-11.3975
▁drown	-11.3975
▁forecast	-11.3975
▁hammer	-11.3977
▁advise	-11.398
▁coastline	-11.3987
▁vast	-11.4002
▁Cumbria	-11.4011
▁Julius	-11.4011
▁Kurds	-11.4012
electric	-11.4014
evich	-11.4015
▁infantry	-11.4015
▁progressive	-11.4017
▁kiss	-11.4021
shaw	-11.4026
▁resemble	-11.4029
▁organize	-11.4031
▁Johannes	-11.4036
▁Letter	-11.4046
▁Pakhtunkhwa	-11.4048
▁Brussels	-11.4048
▁afraid	-11.4048
▁sphere	-11.4048
▁tactic	-11.4049
▁preferred	-11.4049
▁infant	-11.4049
▁intense	-11.405
▁Goals	-11.4055
▁carefully	-11.406
▁Terry	-11.4069
▁Diana	-11.4078
IX	-11.4078
▁crop	-11.4079
▁automatically	-11.4084
▁autumn	-11.4084
▁conclude	-11.4084
▁velocity	-11.4084
▁Trinity	-11.4084
▁remake	-11.4084
▁Global	-11.4085
▁twinned	-11.4086
▁racial	-11.4087
▁settle	-11.4088
scribed	-11.4091
▁Studio	-11.4091
▁Serbian	-11.4112
▁publish	-11.4119
▁algebra	-11.4121
▁Cincinnati	-11.4121
▁aggressive	-11.4121
▁procedure	-11.4121
▁burrow	-11.4121
▁psychological	-11.4121
▁intention	-11.4121
▁organised	-11.4125
▁reject	-11.4125
▁mall	-11.4146
▁Attorney	-11.4158
▁economist	-11.4158
▁suspended	-11.4158
▁Baroque	-11.4158
▁sensor	-11.4158
number	-11.4162
scape	-11.4166
▁stopping	-11.4167
▁epic	-11.4168
▁attach	-11.4181
abbreviated	-11.4195
▁Confederation	-11.4195
▁Malcolm	-11.4195
▁Salvador	-11.4195
▁Sussex	-11.4195
▁Latvia	-11.4195
▁wool	-11.4195
▁grandmother	-11.4195
▁copyright	-11.4196
▁strain	-11.4196
▁distant	-11.4199
▁hook	-11.42
▁triple	-11.4216
▁possess	-11.4219
▁Chase	-11.4222
▁Crime	-11.4227
▁Julia	-11.4231
▁Admiral	-11.4232
▁welcome	-11.4232
▁borrow	-11.4232
▁computing	-11.4232
▁interior	-11.4232
▁Rotten	-11.4232
▁Heinrich	-11.4232
▁valid	-11.4233
▁Article	-11.4234
▁ensure	-11.4235
pronounced	-11.4246
▁Justin	-11.4248
▁1879	-11.425
clav	-11.4252
▁vocalist	-11.4252
▁Jew	-11.4252
▁1886	-11.4256
▁Flu	-11.4262
▁Bachelor	-11.4269
▁Chronicle	-11.4269
▁Yankee	-11.4269
▁treasure	-11.4269
▁Private	-11.4269
▁Twenty	-11.4269
▁fabric	-11.4269
▁Wheel	-11.4269
▁Meiji	-11.4269
▁Information	-11.427
▁partially	-11.427
▁radical	-11.427
▁Valentin	-11.4271
▁naming	-11.4272
▁partnership	-11.4274
▁fault	-11.4274
▁advertisement	-11.4276
▁Factor	-11.4277
▁Revolutionary	-11.4279
▁Kei	-11.4286
▁tension	-11.4287
▁1884	-11.4288
▁Official	-11.4307
▁theoretical	-11.4307
▁skating	-11.4307
▁Machine	-11.4307
▁Maurice	-11.4308
▁Judge	-11.4311
▁Cub	-11.4311
▁Starting	-11.4321
▁1887	-11.4324
▁Institut	-11.4329
▁Marcel	-11.4333
40,000	-11.4344
▁explode	-11.4344
▁revenge	-11.4344
▁revolt	-11.4345
▁Kitt	-11.4345
▁behave	-11.4347
▁polymer	-11.435
hurst	-11.4354
▁Franc	-11.4375
▁Must	-11.4381
▁Griffith	-11.4382
▁admitted	-11.4382
▁calculation	-11.4382
▁playwright	-11.4382
▁labour	-11.4382
▁Indianapolis	-11.4382
▁Bedford	-11.4382
▁spiral	-11.4382
▁Aviation	-11.4382
Westphalia	-11.4383
▁Kirby	-11.4384
released	-11.4387
▁saving	-11.4387
▁Panther	-11.439
▁friendship	-11.439
▁Marvel	-11.4394
▁purchase	-11.4397
▁pigment	-11.4397
▁1858	-11.4399
▁lady	-11.4415
▁Tomatoes	-11.442
▁plateau	-11.4426
▁princess	-11.4427
▁Philippine	-11.4438
▁specialized	-11.4448
▁quad	-11.4448
▁circum	-11.4458
▁cuisine	-11.4458
▁discipline	-11.4458
▁unsuccessful	-11.4458
▁creative	-11.446
▁Ultra	-11.4461
▁stereo	-11.4464
▁Delhi	-11.4466
▁stain	-11.4469
▁Highland	-11.449
▁Alexandria	-11.4493
▁Chelsea	-11.4496
▁agencies	-11.4496
▁comparison	-11.4496
▁lieutenant	-11.4496
▁aluminium	-11.4496
▁accidentally	-11.4502
▁tap	-11.4503
▁index	-11.4507
▁brave	-11.451
▁Sugar	-11.4514
▁1868	-11.4514
▁representation	-11.453
▁Continental	-11.4535
▁Explorer	-11.4535
▁Solomon	-11.4535
▁psychologist	-11.4535
▁digits	-11.4535
▁Gerald	-11.4535
▁Ellen	-11.4545
▁Leonardo	-11.4552
▁1869	-11.4554
▁Satan	-11.4561
▁Cyprus	-11.4573
▁Dorothy	-11.4573
▁amphibia	-11.4573
▁abilities	-11.4573
▁Qatar	-11.4573
▁ignore	-11.4574
▁torture	-11.4574
▁elementary	-11.4583
serving	-11.4585
ethyl	-11.4591
▁frequent	-11.4596
▁fox	-11.4598
▁hetero	-11.4605
stronomical	-11.4612
▁circulation	-11.4612
▁uncertain	-11.4612
▁vampire	-11.4612
▁naked	-11.4612
▁migrate	-11.4612
▁bicycle	-11.4612
▁ranging	-11.4612
writer	-11.4615
▁Aviv	-11.4616
▁possession	-11.4626
▁1878	-11.463
▁geological	-11.4649
▁Denis	-11.465
▁Enterprise	-11.465
▁Leipzig	-11.465
▁Newfoundland	-11.465
▁Physiology	-11.465
▁demonstration	-11.465
▁Chemical	-11.465
▁deputy	-11.465
▁demonstrate	-11.465
▁venue	-11.465
eater	-11.4654
▁bulb	-11.4655
▁Liberty	-11.4656
▁Monica	-11.4656
▁legendary	-11.4657
▁1882	-11.4663
▁Case	-11.4666
▁1883	-11.4671
▁bassist	-11.4674
▁Jesse	-11.4688
▁milli	-11.4689
▁Chevrolet	-11.4689
▁Cultural	-11.4689
▁Environment	-11.4689
▁Tuesday	-11.4689
▁Sicily	-11.4689
▁Cornell	-11.4693
formerly	-11.4697
▁organist	-11.4699
Garonne	-11.471
▁Prison	-11.4712
▁membership	-11.4718
▁Hemisphere	-11.4728
▁nebula	-11.4728
▁coalition	-11.473
▁quarterback	-11.473
▁threw	-11.473
profit	-11.4736
ucci	-11.4737
▁Mull	-11.4746
▁trumpet	-11.4768
▁continuing	-11.4768
▁Stefan	-11.4769
▁Period	-11.4773
League	-11.4775
▁1790	-11.4789
worm	-11.479
eptic	-11.4794
▁lesbian	-11.4807
▁recruit	-11.4807
▁cardinal	-11.4807
▁elsewhere	-11.4808
▁Ferrari	-11.4808
bacter	-11.4809
▁summit	-11.4809
▁Silva	-11.4811
▁artwork	-11.4814
▁rip	-11.4815
▁Baha	-11.4821
▁associate	-11.4823
▁Alzheimer	-11.4846
▁persuade	-11.4846
▁decorated	-11.4846
▁trunk	-11.4846
▁Ernst	-11.4847
▁Sherman	-11.4847
▁mainstream	-11.4851
▁calm	-11.4854
length	-11.4855
▁jury	-11.4857
control	-11.4857
▁Martha	-11.486
▁participate	-11.4863
▁retail	-11.4863
optera	-11.487
woman	-11.4873
▁worried	-11.4886
▁Lopez	-11.4886
▁goalkeeper	-11.4887
▁citizenship	-11.4888
▁engage	-11.4903
▁Baltic	-11.4903
▁slip	-11.4909
▁nice	-11.4914
▁Market	-11.4914
▁homo	-11.4915
▁turbine	-11.4926
▁geography	-11.4926
▁Eleven	-11.4926
▁Eurasia	-11.4926
▁fusion	-11.4929
▁poisonous	-11.493
holm	-11.4931
▁hind	-11.4933
English	-11.4935
▁diverse	-11.494
▁complet	-11.4942
▁offspring	-11.4966
▁survivor	-11.4966
▁varieties	-11.4966
▁Return	-11.4966
▁Renault	-11.4967
▁Flower	-11.4967
▁Throughout	-11.4967
▁iOS	-11.4968
escence	-11.4968
▁Philippe	-11.4973
video	-11.4977
▁Chester	-11.4984
▁1877	-11.4989
▁Look	-11.499
▁Esperanto	-11.5006
▁Leopold	-11.5006
▁precise	-11.5006
▁intensity	-11.5006
▁Ticino	-11.5006
Maritimes	-11.5007
▁accent	-11.5007
▁scholarship	-11.501
▁Scots	-11.5011
▁register	-11.5012
▁Faith	-11.5012
▁gear	-11.5014
▁Clement	-11.502
▁luck	-11.5026
south	-11.5028
color	-11.5038
▁Basin	-11.5043
▁migration	-11.5046
▁Besides	-11.5048
▁tide	-11.5048
▁discrimination	-11.5048
▁trapped	-11.5049
▁gentle	-11.5052
▁everywhere	-11.5052
▁Jazz	-11.5053
▁circular	-11.5087
▁substitute	-11.5087
▁recipe	-11.5087
▁(2006)	-11.5087
▁Mercedes	-11.5087
▁Bolivia	-11.5087
▁Eurovision	-11.5088
▁nuclei	-11.5088
▁dried	-11.5088
9,000	-11.5089
▁harmful	-11.509
▁Carroll	-11.5091
▁underwater	-11.51
▁Angle	-11.5124
▁Engineering	-11.5128
▁dolphin	-11.5128
▁vacuum	-11.5128
▁varied	-11.5128
▁Beverly	-11.5128
▁raising	-11.5128
▁plague	-11.5131
raptor	-11.5145
▁schedule	-11.5145
▁1866	-11.5148
cession	-11.5149
▁Direct	-11.5165
▁Fantasy	-11.5168
▁Sanskrit	-11.5168
▁Thursday	-11.5168
▁resolution	-11.5168
▁sulfide	-11.5168
▁Colonel	-11.5168
▁upgraded	-11.5169
▁Betty	-11.5169
▁Duchess	-11.5169
▁freshwater	-11.5169
▁defect	-11.5169
▁Empress	-11.517
▁Stanford	-11.5171
▁establishment	-11.5175
▁Morrison	-11.5179
third	-11.5181
oidea	-11.5185
fold	-11.5193
▁mating	-11.5203
▁Extreme	-11.5209
▁ecosystem	-11.5209
▁Wyoming	-11.5209
▁Future	-11.5213
▁interval	-11.5217
▁Nathan	-11.5217
▁wrap	-11.522
▁Slovakia	-11.5227
▁Persia	-11.5228
▁1872	-11.5229
berries	-11.5241
symmetric	-11.5251
▁Yokohama	-11.5251
▁consequence	-11.5251
▁describing	-11.5251
▁sensitive	-11.5251
▁Cricket	-11.5251
▁applies	-11.5251
▁stuck	-11.5251
▁trophy	-11.5251
▁finance	-11.5256
▁lifestyle	-11.526
▁Grim	-11.5265
▁Theater	-11.5271
▁1875	-11.5273
▁Triassic	-11.5292
▁constituency	-11.5292
▁Toyota	-11.5292
▁compilation	-11.5292
▁swallow	-11.5292
jrvi	-11.5292
▁CEO	-11.5292
60,000	-11.5292
▁thread	-11.5292
▁aquatic	-11.5292
▁Electronic	-11.5292
▁Franois	-11.5293
▁Bradford	-11.5295
▁sharing	-11.5297
national	-11.5298
▁eliminat	-11.53
prefecture	-11.5304
▁flee	-11.531
▁manual	-11.531
▁Comb	-11.5333
▁Canterbury	-11.5333
▁Galaxy	-11.5333
▁Literature	-11.5333
▁NASCAR	-11.5333
▁respiratory	-11.5333
▁unconscious	-11.5333
▁(2005)	-11.5333
▁Falcon	-11.5333
▁mutation	-11.5334
▁Windsor	-11.5334
▁orphan	-11.5335
▁Angola	-11.5337
▁Urdu	-11.5337
friend	-11.5344
mother	-11.5374
▁ceremonies	-11.5375
▁clarinet	-11.5375
▁proposal	-11.5375
▁Theodore	-11.5375
▁fraction	-11.5376
▁Savoy	-11.5377
▁trend	-11.5379
saurus	-11.5386
▁landmark	-11.5387
▁Lynn	-11.5389
▁spell	-11.5401
▁Hook	-11.5413
▁tear	-11.5415
communica	-11.5416
▁Communication	-11.5417
▁oxidizing	-11.5417
▁Management	-11.5417
▁collision	-11.5417
▁Mickey	-11.5417
▁Floyd	-11.5417
▁Happy	-11.5417
▁Concord	-11.5418
▁axe	-11.5421
▁macro	-11.5429
white	-11.543
heart	-11.5431
ggio	-11.5433
▁lightning	-11.5436
▁Associate	-11.5459
▁Broadcasting	-11.5459
▁Northumbria	-11.5459
▁celebrities	-11.5459
▁competitor	-11.5459
▁consonant	-11.5459
▁kilogram	-11.5459
▁margin	-11.546
▁Generation	-11.5461
▁hiding	-11.5466
▁investment	-11.547
▁Touch	-11.5476
▁preserve	-11.5478
▁patch	-11.5479
▁1856	-11.5481
▁dye	-11.5492
▁hybrid	-11.5501
▁terrestrial	-11.5501
▁vaccine	-11.5501
▁recreation	-11.5501
▁Domingo	-11.5501
▁Mughal	-11.5501
▁informal	-11.5501
▁Hiroshima	-11.5501
▁Cairo	-11.5502
▁Eugene	-11.5503
▁Edwin	-11.5504
▁drag	-11.551
▁Kazu	-11.5512
ologie	-11.5513
▁Blair	-11.5517
▁Somme	-11.5518
▁introduce	-11.552
▁Again	-11.5538
▁Electro	-11.5543
▁laser	-11.5543
▁Industrial	-11.5543
▁Madagascar	-11.5543
▁Palestinian	-11.5543
▁cylinder	-11.5543
▁vegetation	-11.5543
▁pursue	-11.5543
▁astronaut	-11.5544
▁Duchy	-11.5547
▁pedal	-11.555
▁Johan	-11.5553
▁Robb	-11.5554
▁1873	-11.5563
egislative	-11.5586
▁Ambassador	-11.5586
▁caterpillar	-11.5586
▁skyscraper	-11.5586
▁Gregorian	-11.5586
▁Memphis	-11.5586
▁glacier	-11.5586
▁integrate	-11.5586
▁exponent	-11.5587
▁Surrey	-11.5587
static	-11.5588
▁aviation	-11.5588
▁obtain	-11.5596
▁Grave	-11.5627
▁Professional	-11.5629
▁Tchaikovsky	-11.5629
▁corruption	-11.5629
▁separation	-11.5629
▁Newcastle	-11.5629
▁remnant	-11.5629
▁Spencer	-11.5629
▁Political	-11.5629
▁radius	-11.5629
▁relax	-11.5629
▁Bohemia	-11.5629
▁brew	-11.5632
▁Bundes	-11.5632
present	-11.5637
▁Watch	-11.5641
▁Guide	-11.5645
▁hitting	-11.5648
▁wrestle	-11.5651
▁pond	-11.5657
▁Statistical	-11.5672
▁familiar	-11.5672
▁institute	-11.5672
▁platinum	-11.5672
▁WCW	-11.5672
▁Mobile	-11.5672
▁motorcycle	-11.5672
▁marble	-11.5673
▁Milky	-11.5674
▁Indies	-11.5681
▁1854	-11.5686
▁blog	-11.5696
scribe	-11.5705
▁Architect	-11.5715
▁convection	-11.5715
▁Avatar	-11.5715
▁Technical	-11.5715
▁stolen	-11.5716
quality	-11.5717
Orlans	-11.5722
▁distinctive	-11.5725
▁Lutheran	-11.5727
▁sculptor	-11.5758
▁sketch	-11.5758
▁Ahmad	-11.5758
▁Double	-11.5758
▁Sleep	-11.5758
▁alternate	-11.5759
▁afford	-11.5759
▁compact	-11.5762
▁consistent	-11.5769
▁observer	-11.5775
▁fake	-11.5789
▁NCAA	-11.5802
▁abroad	-11.5802
▁Hundred	-11.5802
▁steep	-11.5802
▁pocket	-11.5802
▁cruel	-11.5802
▁Cartoon	-11.5802
▁extent	-11.5802
▁harsh	-11.5802
▁Curtis	-11.5802
▁Guitar	-11.5803
▁trilogy	-11.5803
charge	-11.5817
▁Marcus	-11.5821
dministered	-11.5845
▁Wednesday	-11.5845
▁definite	-11.5845
▁Barbados	-11.5845
▁Mandela	-11.5845
▁sought	-11.5845
▁discharge	-11.5847
▁Blanc	-11.5851
▁Morning	-11.5852
▁Broad	-11.5853
▁corps	-11.5853
▁precede	-11.586
▁wake	-11.5882
▁imprisoned	-11.5889
▁unhappy	-11.5889
▁shadow	-11.5889
▁surname	-11.5889
▁nominee	-11.5889
spherical	-11.5889
▁latitude	-11.5892
▁Adrian	-11.5894
▁kids	-11.5894
▁1844	-11.5903
▁teenage	-11.5905
▁extract	-11.5929
▁Tuscany	-11.5933
▁phenomenon	-11.5933
▁Berkeley	-11.5933
▁Jessica	-11.5933
▁Basilica	-11.5934
▁layout	-11.5936
▁favourite	-11.5936
▁altar	-11.594
▁mood	-11.595
▁1874	-11.5955
▁Ville	-11.5973
▁possibility	-11.5977
▁inspiration	-11.5977
▁congress	-11.5977
▁cruise	-11.5978
▁Belize	-11.5981
▁Caroline	-11.5983
▁jam	-11.5985
▁Christina	-11.5989
school	-11.5996
plast	-11.5997
▁Medici	-11.6016
▁furniture	-11.6022
▁Kenneth	-11.6022
▁clade	-11.6022
▁Manila	-11.6022
▁Writer	-11.6022
▁Trojan	-11.6023
▁lawsuit	-11.6025
▁solvent	-11.6025
▁Holmes	-11.6027
▁germ	-11.6032
▁747	-11.6034
cycle	-11.6055
▁Nuremberg	-11.6066
▁exposure	-11.6066
▁illustrate	-11.6066
▁McDonald	-11.6066
▁underneath	-11.6066
▁Wizard	-11.6066
▁numeral	-11.6066
▁width	-11.6066
▁drift	-11.6067
▁edited	-11.6067
▁Observatory	-11.6067
▁fibre	-11.6069
▁HIV	-11.6071
▁Pepper	-11.6073
▁feast	-11.6075
▁Glad	-11.609
▁Representative	-11.6101
▁facility	-11.6111
▁encrypt	-11.6111
▁Batista	-11.6111
▁carriage	-11.6111
▁twist	-11.6111
▁orientation	-11.6111
▁Smash	-11.6111
▁dinner	-11.6112
▁clip	-11.6127
WWE	-11.613
▁Challenge	-11.6156
▁Constantine	-11.6156
▁Kazakhstan	-11.6156
▁Twelve	-11.6156
▁libraries	-11.6156
▁batteries	-11.6156
▁junction	-11.6156
▁Piano	-11.6171
through	-11.6176
Martin	-11.618
▁translate	-11.618
▁Mouse	-11.6191
▁Pluto	-11.6202
▁knife	-11.6202
▁NXT	-11.6202
▁statistical	-11.6202
▁Animation	-11.6202
▁Vatican	-11.6202
▁Ghana	-11.6202
▁kilo	-11.6204
▁Hartford	-11.6205
▁1851	-11.6217
▁compose	-11.6218
▁referee	-11.6234
▁Aristotle	-11.6247
▁Holocaust	-11.6247
▁Istanbul	-11.6247
▁Sullivan	-11.6247
▁advocate	-11.6247
▁phosphor	-11.6247
▁releasing	-11.6247
▁voyage	-11.6247
▁Treasure	-11.6247
▁(2007)	-11.6247
▁Antoine	-11.6247
▁antenna	-11.6248
▁Depend	-11.6248
▁conclusion	-11.6249
▁juice	-11.625
▁Duncan	-11.625
▁commentator	-11.625
include	-11.6267
▁Basic	-11.6272
▁archaeological	-11.6293
▁disabilities	-11.6293
▁feminist	-11.6293
▁Thousand	-11.6293
Austr	-11.6293
▁Deutsche	-11.6293
▁chlorine	-11.6293
▁(2004)	-11.6293
▁claws	-11.6293
▁Laboratory	-11.6293
ocracy	-11.6295
▁banana	-11.6296
▁spear	-11.6298
▁Uncle	-11.6298
▁Cloud	-11.6298
▁carved	-11.6302
▁Circuit	-11.6339
▁Curitiba	-11.6339
▁administrator	-11.6339
▁vibration	-11.6339
▁Sardinia	-11.6339
▁Somerset	-11.6339
▁Limited	-11.6339
▁beneath	-11.6339
▁superior	-11.6339
▁grape	-11.6339
▁missed	-11.6343
women	-11.6365
▁regulate	-11.6369
parliamentary	-11.6375
▁careful	-11.6377
Connor	-11.6382
▁acoustic	-11.6385
▁preparation	-11.6385
▁Gibson	-11.6385
▁romance	-11.6385
▁Uranus	-11.6385
▁diversity	-11.6385
▁Fischer	-11.6385
yuki	-11.6391
▁Torres	-11.6391
▁Crash	-11.6397
▁Historia	-11.6401
▁immediate	-11.6415
▁Michelangelo	-11.6431
▁Suzuki	-11.6431
▁structural	-11.6431
▁subfamily	-11.6431
▁fluoride	-11.6431
▁Progress	-11.6431
▁birthplace	-11.6433
▁asthma	-11.6473
▁Odd	-11.6473
▁Guatemala	-11.6477
▁doctrine	-11.6477
▁technologies	-11.6477
▁uranium	-11.6477
▁Cambodia	-11.6477
▁Lombard	-11.6477
▁superhero	-11.6477
▁FBI	-11.6478
320	-11.6479
▁generator	-11.649
▁Mongol	-11.6496
▁praise	-11.6501
▁Petro	-11.6504
product	-11.651
▁Exchange	-11.6524
▁Physics	-11.6524
▁competitive	-11.6524
▁terrible	-11.6524
▁Campaign	-11.6524
▁blamed	-11.6524
▁seventeen	-11.6524
▁flesh	-11.6524
▁heavier	-11.6525
▁Critics	-11.6525
▁Honda	-11.6525
▁gallery	-11.6525
▁regiment	-11.6526
France	-11.6547
▁Winston	-11.6559
▁Hopkins	-11.6571
▁commemorat	-11.6571
▁Soldier	-11.6571
▁requirements	-11.6574
▁compare	-11.6599
▁sudden	-11.6603
▁Found	-11.6612
▁Mikhail	-11.6618
▁anxiety	-11.6618
▁ceramic	-11.6618
▁confusion	-11.6618
▁undergraduate	-11.6618
▁hollow	-11.6618
▁Chteau	-11.6618
▁composing	-11.6618
▁excess	-11.6619
▁ISO	-11.6619
▁Strauss	-11.6619
▁wildlife	-11.662
▁Dylan	-11.6622
▁guy	-11.6622
▁funny	-11.6627
▁Universit	-11.6645
▁Antwerp	-11.6666
▁Construction	-11.6666
▁invertebrate	-11.6666
▁predecessor	-11.6666
▁transgender	-11.6666
▁Hispanic	-11.6666
▁Rugby	-11.6666
▁attorney	-11.6666
▁Gaelic	-11.6666
▁audition	-11.6666
▁harmonic	-11.6667
Mont	-11.667
▁Dawn	-11.6676
4.5	-11.6691
▁Lancaster	-11.6713
▁abdomen	-11.6713
▁celebrity	-11.6713
▁matrix	-11.6713
▁Miguel	-11.6713
▁Patricia	-11.6713
▁relief	-11.6713
▁Cyrus	-11.6714
▁Typical	-11.6714
▁Jumbo	-11.6714
▁bubble	-11.6714
▁Mosque	-11.6715
▁array	-11.6715
▁Voice	-11.6718
▁Rural	-11.6724
▁appropriate	-11.6761
▁approval	-11.6761
▁flexible	-11.6761
▁jurisdiction	-11.6761
▁relativity	-11.6761
▁Berkshire	-11.6761
▁Leicester	-11.6761
▁Valencia	-11.6761
▁mounted	-11.6762
▁peasant	-11.6762
▁Faust	-11.6765
▁nitrate	-11.6765
▁Forbes	-11.6766
keeper	-11.6767
▁Strong	-11.6767
▁amino	-11.6775
▁examine	-11.6787
▁Intelligence	-11.6809
▁announcement	-11.6809
▁guarantee	-11.6809
▁Matilda	-11.6809
▁Shirley	-11.6809
▁optical	-11.6809
▁abbey	-11.6809
▁Scotia	-11.681
▁ownership	-11.6817
agua	-11.6823
▁hydr	-11.6831
witz	-11.6845
▁occupy	-11.6858
▁quantity	-11.6858
▁smoking	-11.6858
▁Felix	-11.6858
▁Regiment	-11.6858
▁Ahmed	-11.6858
▁radar	-11.6861
▁nitr	-11.6881
screen	-11.6885
▁Anglia	-11.6904
▁Constantinople	-11.6906
▁Copenhagen	-11.6906
▁Emmanuel	-11.6906
▁Nowadays	-11.6906
▁Pulitzer	-11.6906
▁Tunisia	-11.6906
▁HMS	-11.6906
▁chorus	-11.6906
▁olive	-11.6907
▁Drake	-11.6908
▁mimic	-11.6909
▁Rumble	-11.6911
▁textile	-11.6914
▁Antarctic	-11.6938
operative	-11.6949
▁Municipal	-11.6952
Wrttemberg	-11.6955
▁Afghan	-11.6955
▁accomplish	-11.6955
▁consecutive	-11.6955
▁flavour	-11.6955
▁volleyball	-11.6955
▁jungle	-11.6955
▁copied	-11.6955
▁acclaim	-11.6955
▁regain	-11.6955
▁lymph	-11.6956
▁Tarzan	-11.6956
▁Oslo	-11.6965
Germain	-11.6969
▁accus	-11.697
▁Helm	-11.6972
▁adjective	-11.7004
▁eccentric	-11.7004
▁percussion	-11.7004
▁RAID	-11.7004
▁pleasure	-11.7004
▁(2010)	-11.7004
ontaine	-11.7004
▁denied	-11.7005
▁trench	-11.7006
▁Ltd	-11.7007
▁blast	-11.7008
▁metric	-11.7019
government	-11.7032
▁Nottingham	-11.7053
▁rebuild	-11.7053
▁Twitter	-11.7053
▁Eleanor	-11.7053
▁cocaine	-11.7053
▁Madonna	-11.7053
▁Sheffield	-11.7053
▁pistol	-11.7053
▁Monroe	-11.7053
▁Worth	-11.7054
▁sponge	-11.7054
▁XIV	-11.7056
▁Jnkping	-11.7103
▁Vaucluse	-11.7103
▁elevator	-11.7103
▁glucose	-11.7103
▁participant	-11.7103
▁referendum	-11.7103
▁revenue	-11.7103
▁hymn	-11.7103
▁retiring	-11.7103
▁closing	-11.7103
soprano	-11.7103
▁Bourbon	-11.7104
▁ornament	-11.7104
▁lyric	-11.7128
especially	-11.7131
▁Shanghai	-11.7152
▁frequencies	-11.7152
▁strategic	-11.7152
▁victories	-11.7152
▁decimal	-11.7152
▁gasoline	-11.7152
▁Chapter	-11.7153
▁helmet	-11.7153
▁overthrow	-11.7153
▁mortal	-11.7153
▁kidnapped	-11.7153
▁Purple	-11.7154
▁interrupt	-11.7155
▁Flying	-11.7156
MLB	-11.7157
▁surround	-11.7179
first	-11.7182
▁Chemistry	-11.7202
▁Cherokee	-11.7202
▁LGBT	-11.7202
▁exploration	-11.7202
▁iodine	-11.7202
▁pulmonar	-11.7202
▁Toulouse	-11.7202
▁theatrical	-11.7202
▁Source	-11.7203
▁balloon	-11.7203
://	-11.7203
▁boyfriend	-11.7203
▁ibn	-11.7204
▁consume	-11.722
▁rotate	-11.7238
▁Smok	-11.7249
▁Wolfgang	-11.7253
▁cyclist	-11.7253
▁symmetry	-11.7253
▁tsunami	-11.7253
▁Annabeth	-11.7253
▁examination	-11.7253
▁(2008)	-11.7253
▁Interior	-11.7253
▁stuff	-11.7253
▁emigrat	-11.7253
▁Hindi	-11.7255
▁trademark	-11.7256
▁Leslie	-11.7258
Japanese	-11.7283
▁XVI	-11.7287
▁autobiography	-11.7303
▁extratropical	-11.7303
▁inhabited	-11.7303
▁memories	-11.7303
▁pronunciation	-11.7303
▁Gloucester	-11.7303
▁devoted	-11.7303
▁Senior	-11.7303
▁Attack	-11.7303
▁turbo	-11.7303
▁Karachi	-11.7307
▁tribal	-11.7307
▁Countries	-11.7307
cultural	-11.7334
opods	-11.7347
▁kidnap	-11.7353
▁Cameroon	-11.7354
▁Lancashire	-11.7354
▁Nicaragua	-11.7354
▁withdrew	-11.7354
▁fortune	-11.7356
▁bisexual	-11.7356
▁Archaeo	-11.736
complete	-11.7385
▁casualties	-11.7405
▁cavalry	-11.7405
▁conversation	-11.7405
▁Amadeus	-11.7405
▁Election	-11.7405
▁Fifth	-11.7405
▁proceed	-11.7405
▁Vocal	-11.7409
▁Vernon	-11.7411
▁conquer	-11.7422
▁Emirates	-11.7456
▁Winnipeg	-11.7456
▁supernatural	-11.7456
▁syllable	-11.7456
▁Janeiro	-11.7456
▁disabled	-11.7456
▁malaria	-11.7456
▁UTC	-11.7456
▁Oswald	-11.7457
▁burst	-11.7457
▁Flyers	-11.7457
▁kitchen	-11.7457
▁backwards	-11.7458
▁Paint	-11.747
▁harp	-11.7471
chemistry	-11.7488
▁Software	-11.7508
▁Stravinsky	-11.7508
▁circumstances	-11.7508
▁Bennett	-11.7508
▁Recently	-11.7508
▁squid	-11.7508
▁Monaco	-11.7508
▁bonus	-11.7508
▁geology	-11.7509
▁microscope	-11.7509
▁Idol	-11.751
▁firing	-11.7514
▁flip	-11.7519
▁Milwaukee	-11.756
▁NATO	-11.756
▁arsenic	-11.756
▁cerebral	-11.756
▁legislation	-11.756
▁mysterious	-11.756
▁Mumbai	-11.756
▁melody	-11.756
▁Eminem	-11.756
▁siege	-11.756
▁brush	-11.756
▁gauge	-11.756
▁legislative	-11.756
▁tired	-11.756
▁helium	-11.7561
removing	-11.7562
▁fortress	-11.7564
▁promot	-11.757
▁geographic	-11.7589
fighter	-11.7594
▁Bouche	-11.7595
▁Eisenhower	-11.7612
▁butterfly	-11.7612
▁perspective	-11.7612
▁Brabant	-11.7612
▁Sunderland	-11.7612
phobia	-11.7612
▁excavat	-11.7613
▁Certain	-11.7613
▁vagina	-11.7613
▁comprise	-11.7615
▁Serv	-11.7629
Donnell	-11.7629
300,000	-11.7664
▁ESPN	-11.7664
▁twentieth	-11.7664
▁Worcester	-11.7664
▁Cologne	-11.7664
▁Gandhi	-11.7664
▁Albany	-11.7664
▁snail	-11.7664
▁jelly	-11.7664
▁Anastasia	-11.7717
▁Brisbane	-11.7717
▁Jeremy	-11.7717
▁Volkswagen	-11.7717
▁iTunes	-11.7717
▁quantities	-11.7717
▁Tournament	-11.7717
▁circus	-11.7717
▁frozen	-11.7717
▁navigation	-11.7717
▁bromide	-11.7717
▁Arlington	-11.7717
▁busiest	-11.7717
▁outcome	-11.7718
▁Cinema	-11.7727
▁surf	-11.7727
iformes	-11.7729
▁Ellis	-11.7738
▁inaugura	-11.7769
▁gymnast	-11.777
▁Brittany	-11.777
▁Voyager	-11.777
▁herbivore	-11.777
▁AIDS	-11.777
▁erosion	-11.777
▁Knox	-11.777
▁strand	-11.777
▁Cliff	-11.777
▁acres	-11.7772
▁remind	-11.7772
▁typ	-11.7775
▁volt	-11.7781
▁confirm	-11.7788
culture	-11.7811
0.5	-11.7814
▁Agriculture	-11.7823
▁imaginary	-11.7823
▁quartet	-11.7823
▁Katherine	-11.7823
▁clergy	-11.7823
▁mystery	-11.7823
▁Sophie	-11.7823
▁blank	-11.7823
▁autism	-11.7824
▁Gloria	-11.7825
▁Fraser	-11.7825
▁owl	-11.7828
▁spark	-11.7829
▁feather	-11.7876
▁Zimbabwe	-11.7876
▁harbour	-11.7876
▁iodide	-11.7876
▁saffron	-11.7876
▁siblings	-11.7876
▁Fossil	-11.7876
▁Pablo	-11.7876
▁Parkinson	-11.7876
▁straw	-11.7876
▁residential	-11.7877
▁blend	-11.7882
▁Alternative	-11.793
▁Flemish	-11.793
▁Hyderabad	-11.793
▁colleague	-11.793
▁pharaoh	-11.793
▁prohibit	-11.793
▁ferment	-11.793
▁innocent	-11.7931
▁adapt	-11.7952
terrorism	-11.7963
▁sweat	-11.7971
▁reservoir	-11.7984
▁welfare	-11.7984
▁Agreement	-11.7984
▁Miranda	-11.7984
▁parody	-11.7984
▁idol	-11.7989
▁interfere	-11.8033
▁diploma	-11.8035
▁Conservation	-11.8038
▁Elisabeth	-11.8038
▁Trinidad	-11.8038
▁Unfortunately	-11.8038
▁opposing	-11.8038
▁petroleum	-11.8038
▁Cromwell	-11.8038
▁impression	-11.8038
▁kangaroo	-11.8038
▁Beyonc	-11.8038
▁nickel	-11.8038
▁Abbottabad	-11.8039
▁Oilers	-11.8039
▁mutual	-11.8039
▁outstanding	-11.8039
▁touchdown	-11.804
▁Afterwards	-11.8041
▁Minneapolis	-11.8093
▁educator	-11.8093
▁enormous	-11.8093
▁synthetic	-11.8093
▁cognitive	-11.8093
▁reconstruct	-11.8093
▁pathogen	-11.8094
▁assassinated	-11.8094
▁toilet	-11.8121
claim	-11.8134
▁ammunition	-11.8148
▁derivative	-11.8148
▁discontinued	-11.8148
▁necessarily	-11.8148
▁routine	-11.8148
▁tattoo	-11.8148
▁tehsil	-11.8148
▁clause	-11.8148
▁Climate	-11.8148
▁Tehran	-11.8148
▁Brunswick	-11.8148
▁Rafael	-11.8148
▁Apostle	-11.8148
▁stall	-11.8149
science	-11.816
▁Simple	-11.8177
glass	-11.8182
North	-11.8189
▁Additionally	-11.8203
▁Beautiful	-11.8203
▁Greenwich	-11.8203
▁Mesopotamia	-11.8203
▁immunity	-11.8203
▁Herakles	-11.8203
▁shrimp	-11.8203
▁absence	-11.8203
▁licence	-11.8203
▁pretty	-11.8203
▁betray	-11.8205
▁plasma	-11.8205
▁Samoa	-11.8228
World	-11.8244
South	-11.8244
▁apprentice	-11.8259
▁consciousness	-11.8259
▁territorial	-11.8259
▁Canucks	-11.8259
▁confess	-11.8259
utstanding	-11.8266
mobile	-11.83
grass	-11.8301
phosphate	-11.8315
▁Rockefeller	-11.8315
▁cycling	-11.8315
▁exhaust	-11.8315
▁savanna	-11.8315
▁architectural	-11.8315
▁(2013)	-11.8315
▁nectar	-11.8315
▁intestine	-11.8315
▁Uttar	-11.8315
▁truly	-11.8315
▁Opposition	-11.8316
▁replica	-11.8317
▁Armstrong	-11.8371
▁Balochistan	-11.8371
▁Caucasus	-11.8371
▁Pitjantjatjara	-11.8371
▁striking	-11.8371
▁dessert	-11.8371
▁Survey	-11.8371
▁Buffy	-11.8371
▁attributed	-11.8371
▁Crusade	-11.8371
▁Ultimate	-11.8427
▁genocide	-11.8427
▁infrastructure	-11.8427
▁bushranger	-11.8427
▁drought	-11.8427
▁gospel	-11.8427
▁Swift	-11.8427
▁Judith	-11.8427
▁Terror	-11.8428
▁Style	-11.8436
oriented	-11.8461
famous	-11.847
▁Citizen	-11.8484
▁Sergeant	-11.8484
▁archipelago	-11.8484
▁efficiency	-11.8484
▁fountain	-11.8484
▁salamander	-11.8484
▁bachelor	-11.8484
▁mascot	-11.8484
▁Patriot	-11.8484
▁cartridge	-11.8484
▁revival	-11.8484
▁wives	-11.8485
▁Jorge	-11.8485
▁Usher	-11.8486
▁acute	-11.8488
▁Vishnu	-11.8541
▁Wimbledon	-11.8541
▁carnivore	-11.8541
▁consumption	-11.8541
▁militia	-11.8541
▁millennium	-11.8541
▁prehistoric	-11.8541
▁ultraviolet	-11.8541
▁Joshua	-11.8541
▁Lorraine	-11.8541
▁perception	-11.8541
▁vapor	-11.8541
▁resolve	-11.8541
▁drill	-11.8542
▁Hoffman	-11.8543
modern	-11.8586
▁Giuseppe	-11.8599
▁mosquito	-11.8599
▁suspension	-11.8599
▁symphony	-11.8599
▁unincorporated	-11.8599
▁vulnerable	-11.8599
▁yield	-11.8599
▁Amendment	-11.8599
▁mollusc	-11.8599
▁Tanzania	-11.8599
▁Anjou	-11.8599
▁Zelda	-11.8599
▁Heavy	-11.8599
▁delegate	-11.8599
▁stair	-11.8599
▁garage	-11.86
▁valve	-11.8603
▁Basil	-11.8635
▁Crawford	-11.8657
▁Scientific	-11.8657
▁butterflies	-11.8657
▁Canberra	-11.8657
▁Paraguay	-11.8657
▁secular	-11.8657
▁Mandarin	-11.8657
▁addiction	-11.8657
▁Waterloo	-11.8657
▁dorsal	-11.8657
▁Industry	-11.8657
▁disguise	-11.8657
▁Timothy	-11.8715
▁phylum	-11.8715
▁Danube	-11.8715
▁Monument	-11.8715
▁cardiac	-11.8715
▁exceed	-11.8715
▁Manager	-11.8715
▁inauguration	-11.8716
▁prompt	-11.8717
▁Glass	-11.8717
▁Suceava	-11.8773
▁Undertaker	-11.8773
▁Vampire	-11.8773
▁archaeologist	-11.8773
▁captivity	-11.8773
▁devotion	-11.8773
▁harbor	-11.8773
▁Guinness	-11.8773
▁disciple	-11.8773
▁Macbeth	-11.8773
Neill	-11.8788
▁Example	-11.8802
▁Okinawa	-11.8832
▁Protocol	-11.8832
▁Cowboy	-11.8832
▁Railroad	-11.8832
▁(2001)	-11.8832
▁Brandenburg	-11.8833
▁Wesley	-11.8834
▁plug	-11.8841
▁ceremonial	-11.8891
▁libretto	-11.8891
▁Thirty	-11.8891
▁dividing	-11.8891
▁unstable	-11.8891
▁Henderson	-11.8891
▁placing	-11.8891
▁Marilyn	-11.8891
▁assemble	-11.8891
▁hamlet	-11.8891
▁Legion	-11.8891
Pierre	-11.8939
▁Pilgrim	-11.8951
▁acronym	-11.8951
▁corporate	-11.8951
▁schizophrenia	-11.8951
▁Artemis	-11.8951
▁iPad	-11.8951
▁globe	-11.8951
▁reliable	-11.8951
▁Canyon	-11.8951
▁overdose	-11.8952
▁Basque	-11.8952
▁scrap	-11.8962
▁speculat	-11.8978
▁Fukushima	-11.9011
▁entrepreneur	-11.9011
▁extraordinary	-11.9011
▁forbidden	-11.9011
▁illustration	-11.9011
▁messenger	-11.9011
▁reproductive	-11.9011
▁tuberculosis	-11.9011
▁desktop	-11.9011
▁prototype	-11.9011
▁anatomy	-11.9011
▁fertile	-11.9011
▁Britten	-11.9011
▁(2011)	-11.9011
▁greet	-11.9012
▁boost	-11.9017
vascula	-11.9025
region	-11.9037
evolution	-11.9058
WWF	-11.906
▁Halloween	-11.9071
▁abundant	-11.9071
▁conspiracy	-11.9071
▁genital	-11.9071
▁philanthrop	-11.9071
▁battalion	-11.9071
▁nobility	-11.9071
▁Katrina	-11.9071
▁Honour	-11.9071
▁ladder	-11.9071
▁Slayer	-11.9071
▁Vlad	-11.9077
violet	-11.9077
▁Cristi	-11.9083
▁Hispaniola	-11.9131
▁Siegfried	-11.9131
▁suppress	-11.9131
▁(2002)	-11.9132
▁obsess	-11.9132
▁counsel	-11.9132
▁Slovak	-11.9166
▁resource	-11.9173
Hungary	-11.9183
▁Belfast	-11.9192
▁Industries	-11.9192
▁Kosovo	-11.9192
▁Physical	-11.9192
▁Saskatchewan	-11.9192
▁cultivated	-11.9192
▁exclude	-11.9192
▁preservation	-11.9192
▁syphilis	-11.9192
▁wheelchair	-11.9192
▁Chamberlain	-11.9192
70,000	-11.9192
▁Myanmar	-11.9192
▁Species	-11.9192
▁disbanded	-11.9192
▁enhance	-11.9193
▁(2003)	-11.9193
▁Celsius	-11.9193
▁stunt	-11.9193
▁baked	-11.9193
▁marsupial	-11.9254
▁tectonic	-11.9254
▁temporarily	-11.9254
▁wisdom	-11.9254
▁ceiling	-11.9254
▁Wichita	-11.9254
▁mistress	-11.9254
▁ministry	-11.9254
▁solving	-11.9254
▁OBE	-11.9254
▁Frost	-11.9254
▁pseudo	-11.9255
establish	-11.9306
blood	-11.9307
▁GameCube	-11.9316
▁Helsinki	-11.9316
▁emphasis	-11.9316
▁narrator	-11.9316
▁semiconductor	-11.9316
▁Whedon	-11.9316
▁Harbour	-11.9316
▁Ricardo	-11.9316
▁Wyatt	-11.9316
▁harmony	-11.9316
▁IGN	-11.9316
▁Gtaland	-11.9316
www	-11.9316
▁Corinth	-11.9316
▁silica	-11.9318
therapy	-11.9374
clusion	-11.9375
nautical	-11.9377
▁Cyrillic	-11.9378
▁Facebook	-11.9378
▁Oblast	-11.9378
▁interchange	-11.9378
▁reggae	-11.9378
▁subdivided	-11.9378
▁remarkable	-11.9378
▁Kuwait	-11.9378
▁Grammar	-11.9378
▁Shield	-11.9378
▁funded	-11.9379
▁profession	-11.939
ddington	-11.9418
writing	-11.9432
▁carnivorous	-11.944
▁eukaryote	-11.944
▁typhoon	-11.944
▁bleeding	-11.944
▁cereal	-11.944
▁dictionary	-11.944
▁sportscaster	-11.944
▁Paradise	-11.944
▁friction	-11.944
▁removal	-11.944
▁parrot	-11.944
▁clever	-11.944
▁Catalan	-11.9441
▁slice	-11.9466
▁immigrant	-11.9494
Russian	-11.9495
girl	-11.9496
▁Taipei	-11.9503
▁chimpanzee	-11.9503
▁crustaceans	-11.9503
▁inclination	-11.9503
▁integral	-11.9503
▁intermediate	-11.9503
▁thumb	-11.9503
▁Cardiff	-11.9503
▁Holiday	-11.9503
▁Huxley	-11.9503
▁bacterium	-11.9503
▁receptor	-11.9503
▁Eduard	-11.9503
▁granite	-11.9503
▁Irving	-11.9503
▁reddish	-11.9503
▁inscription	-11.9504
British	-11.9559
▁Whale	-11.9562
XXX	-11.9565
▁Fitzgerald	-11.9566
▁Guerrero	-11.9566
▁atmospheric	-11.9566
▁bankruptcy	-11.9566
▁certificate	-11.9566
▁dialogue	-11.9566
▁diocese	-11.9566
▁mushroom	-11.9566
▁multiplayer	-11.9566
▁Safety	-11.9566
▁sniper	-11.9566
80,000	-11.9566
▁stiff	-11.9566
▁multiply	-11.9566
▁Predator	-11.9567
▁urine	-11.9568
▁arrange	-11.9601
▁Indigenous	-11.963
▁evacuate	-11.963
▁jealous	-11.963
▁nightclub	-11.963
▁revived	-11.963
▁ammonia	-11.963
▁infrared	-11.963
▁rhyme	-11.963
▁HBO	-11.963
▁Visual	-11.9631
1,0	-11.9651
daptive	-11.9676
10,000	-11.9687
▁Hannibal	-11.9694
▁Important	-11.9694
▁encyclopedia	-11.9694
▁leopard	-11.9694
▁nocturnal	-11.9694
▁Carnegie	-11.9694
▁combining	-11.9694
▁antimony	-11.9694
▁choosing	-11.9694
▁Formation	-11.9694
▁Byrne	-11.9694
▁strata	-11.9695
▁imagine	-11.9695
▁ioniz	-11.9699
▁tilt	-11.9716
▁Euclid	-11.9759
▁bladder	-11.9759
▁confidence	-11.9759
▁migraine	-11.9759
▁protagonist	-11.9759
▁significance	-11.9759
▁CNN	-11.9759
▁fraud	-11.9759
▁(2012)	-11.9759
▁clue	-11.976
▁observe	-11.9775
kreis	-11.9778
▁advertise	-11.9812
▁Herzegovina	-11.9824
▁Restoration	-11.9824
▁supplied	-11.9824
▁uterus	-11.9824
▁Nichols	-11.9824
▁stalk	-11.9824
▁Tennis	-11.9825
▁Kaiser	-11.9825
apsid	-11.984
Coburg	-11.9871
▁Abbott	-11.9889
▁Diocese	-11.9889
▁calculus	-11.9889
▁cigarette	-11.9889
▁luxury	-11.9889
▁phenomena	-11.9889
▁symphonies	-11.9889
▁wolves	-11.9889
▁Discovery	-11.9889
▁Shuttle	-11.9889
▁commerce	-11.9889
▁http	-11.9889
▁maintenance	-11.9889
▁prefix	-11.9889
▁BMW	-11.9889
▁fishermen	-11.9889
▁racism	-11.9889
▁canceled	-11.9889
ethanol	-11.9898
▁larva	-11.995
▁irregular	-11.9955
▁Auschwitz	-11.9955
▁Bonaparte	-11.9955
▁Dsseldorf	-11.9955
▁Fletcher	-11.9955
▁Religion	-11.9955
▁geometric	-11.9955
▁quotation	-11.9955
▁silence	-11.9955
▁Arsenal	-11.9955
▁(2009)	-11.9955
▁Davies	-11.9955
Spanish	-12.0016
capital	-12.0017
ocytes	-12.0017
▁substantial	-12.0021
▁Beginning	-12.0021
▁Montenegro	-12.0021
▁Saddam	-12.0021
▁brilliant	-12.0021
▁immigration	-12.0021
▁supplement	-12.0021
▁hazard	-12.0021
▁slogan	-12.0021
▁Jericho	-12.0021
▁Dresden	-12.0021
▁sensation	-12.0021
▁Scholar	-12.0021
▁freezing	-12.0021
▁tackle	-12.0021
▁grind	-12.0026
▁Brahma	-12.0035
▁Dominic	-12.0076
President	-12.0084
▁Jinnah	-12.0088
▁McLaren	-12.0088
▁Nevertheless	-12.0088
▁Rainbow	-12.0088
▁Rutherford	-12.0088
▁philosophical	-12.0088
▁reorganisation	-12.0088
▁seizure	-12.0088
▁Rihanna	-12.0088
▁amendment	-12.0088
▁Massacre	-12.0088
▁manganese	-12.0088
▁translator	-12.0088
▁MGM	-12.0088
▁Emerson	-12.0088
▁Wheat	-12.0088
▁endemic	-12.0088
▁Snake	-12.0088
▁Cotton	-12.0088
▁Meteor	-12.0089
regulat	-12.0108
▁temper	-12.0152
physics	-12.0153
▁Elephant	-12.0155
▁catalyst	-12.0155
▁happiness	-12.0155
▁pilgrimage	-12.0155
▁thermodynamic	-12.0155
▁Plateau	-12.0155
▁grenade	-12.0155
▁academy	-12.0155
▁Flynn	-12.0155
▁awareness	-12.0155
▁niece	-12.0155
credit	-12.0156
▁IBM	-12.0156
▁Swim	-12.0158
▁revolve	-12.0159
▁Assistant	-12.0222
▁Filipino	-12.0222
▁Fukuoka	-12.0222
▁Guadalcanal	-12.0222
▁Mussolini	-12.0222
▁Uppsala	-12.0222
▁Voldemort	-12.0222
▁photosynthesis	-12.0222
▁prairie	-12.0222
▁Brahms	-12.0222
▁Rebecca	-12.0222
▁ecological	-12.0222
▁Scream	-12.0222
▁spike	-12.0226
▁resident	-12.0236
▁emblem	-12.0274
▁Emanuel	-12.029
▁faculty	-12.029
▁monasteries	-12.029
▁narrative	-12.029
▁paradox	-12.029
▁Corsica	-12.0292
▁exploit	-12.034
▁Budapest	-12.0359
▁Honduras	-12.0359
▁embedd	-12.0359
▁improving	-12.0359
▁wizard	-12.0359
▁Dictionary	-12.0359
▁Galileo	-12.0359
▁breakfast	-12.0359
▁wreck	-12.0359
▁Shrek	-12.0359
▁screw	-12.0359
cyclic	-12.0359
▁Gardner	-12.0359
▁Fighter	-12.0359
▁Austro	-12.0362
▁McKe	-12.0363
system	-12.0364
Script	-12.0399
clockwise	-12.0403
▁dissipated	-12.0428
▁metaphor	-12.0428
▁expelled	-12.0428
▁impressed	-12.0428
▁Auckland	-12.0428
▁MVP	-12.0428
▁Marathon	-12.0428
▁Antilles	-12.0428
▁alkali	-12.0434
▁Rhein	-12.0455
▁oppose	-12.0474
clusive	-12.0496
▁basket	-12.0497
▁Habsburg	-12.0497
▁Pharaoh	-12.0497
▁ambulance	-12.0497
▁logarithm	-12.0497
▁Cambrian	-12.0497
▁departure	-12.0497
▁Sergei	-12.0497
▁kernel	-12.0497
▁fresco	-12.0497
▁Dhaka	-12.0497
▁methane	-12.0497
▁strait	-12.0498
founded	-12.0567
▁Exhibition	-12.0567
▁Labrador	-12.0567
▁Winchester	-12.0567
▁squirrel	-12.0567
privilege	-12.0567
▁emphasize	-12.0567
▁Mecklenburg	-12.0567
▁federation	-12.0567
▁excited	-12.0567
▁Piedmont	-12.0567
▁renewed	-12.0567
▁mortar	-12.0567
▁Haydn	-12.0567
▁uprising	-12.0568
▁Andorra	-12.0568
▁resembl	-12.0604
▁Origin	-12.0622
colour	-12.0637
▁Horizon	-12.0638
▁McCarthy	-12.0638
▁nutrition	-12.0638
▁subsidiary	-12.0638
▁supreme	-12.0638
▁Commerce	-12.0638
▁varsity	-12.0638
▁Brighton	-12.0638
▁Dwight	-12.0638
▁deciding	-12.0638
▁segregation	-12.0638
▁lithium	-12.0638
▁snout	-12.0638
▁Dinosaur	-12.0638
▁Uganda	-12.0638
▁patrol	-12.0656
▁Siege	-12.0673
ichinomiya	-12.0708
▁SpongeBob	-12.0708
